<pad>	0
<unk>	0
<s>	0
</s>	0
▁t	-0
he	-1
▁a	-2
in	-3
re	-4
on	-5
▁the	-6
▁s	-7
er	-8
is	-9
▁w	-10
at	-11
en	-12
▁o	-13
▁c	-14
it	-15
an	-16
or	-17
▁b	-18
es	-19
▁p	-20
▁f	-21
ed	-22
ou	-23
▁to	-24
ing	-25
▁in	-26
al	-27
▁m	-28
ar	-29
▁of	-30
ion	-31
▁an	-32
▁th	-33
▁h	-34
▁d	-35
ro	-36
as	-37
ic	-38
le	-39
▁and	-40
ent	-41
▁T	-42
▁n	-43
▁re	-44
om	-45
▁I	-46
il	-47
▁is	-48
ve	-49
▁be	-50
st	-51
id	-52
ot	-53
▁l	-54
▁e	-55
ly	-56
▁g	-57
ct	-58
ut	-59
▁on	-60
▁A	-61
▁that	-62
▁for	-63
▁S	-64
▁The	-65
▁M	-66
et	-67
▁C	-68
ay	-69
im	-70
se	-71
ur	-72
ver	-73
ol	-74
ation	-75
ad	-76
ow	-77
▁we	-78
ce	-79
am	-80
ig	-81
un	-82
▁it	-83
ill	-84
pe	-85
ld	-86
▁st	-87
▁P	-88
▁al	-89
ir	-90
ort	-91
▁pro	-92
▁E	-93
▁W	-94
▁are	-95
▁y	-96
▁wh	-97
▁con	-98
▁he	-99
ment	-100
▁ha	-101
ch	-102
ith	-103
▁B	-104
ter	-105
ul	-106
▁de	-107
▁not	-108
▁this	-109
ra	-110
▁with	-111
us	-112
res	-113
ke	-114
▁have	-115
▁as	-116
▁H	-117
ate	-118
ould	-119
oun	-120
ore	-121
▁com	-122
ers	-123
her	-124
▁ne	-125
port	-126
ri	-127
▁was	-128
op	-129
if	-130
est	-131
▁at	-132
▁se	-133
▁sh	-134
ust	-135
os	-136
▁"	-137
ess	-138
▁F	-139
▁sa	-140
our	-141
▁will	-142
ge	-143
ain	-144
▁su	-145
igh	-146
ity	-147
▁r	-148
ive	-149
▁has	-150
▁ex	-151
em	-152
ble	-153
ant	-154
and	-155
od	-156
▁N	-157
ac	-158
qu	-159
▁v	-160
▁by	-161
ies	-162
ist	-163
end	-164
el	-165
▁D	-166
art	-167
▁Th	-168
▁G	-169
▁R	-170
▁said	-171
▁L	-172
uro	-173
rom	-174
th	-175
oc	-176
▁2	-177
▁1	-178
▁le	-179
ight	-180
▁O	-181
▁Euro	-182
▁go	-183
ie	-184
▁un	-185
▁U	-186
ial	-187
▁you	-188
▁Europe	-189
▁do	-190
um	-191
pp	-192
▁from	-193
sion	-194
ak	-195
▁In	-196
iv	-197
out	-198
all	-199
00	-200
ure	-201
▁ch	-202
▁wor	-203
ard	-204
ome	-205
▁ag	-206
ren	-207
▁It	-208
ast	-209
▁im	-210
ich	-211
▁can	-212
▁me	-213
▁all	-214
so	-215
▁We	-216
▁or	-217
omm	-218
gh	-219
very	-220
ud	-221
ect	-222
▁ab	-223
ions	-224
▁j	-225
up	-226
ear	-227
ff	-228
▁also	-229
ber	-230
▁res	-231
ther	-232
ake	-233
▁Comm	-234
red	-235
▁would	-236
ll	-237
▁been	-238
▁Mr	-239
▁which	-240
ost	-241
▁there	-242
▁int	-243
▁en	-244
▁but	-245
▁ad	-246
▁pl	-247
ission	-248
▁comp	-249
▁European	-250
ong	-251
▁J	-252
▁tr	-253
ab	-254
▁more	-255
▁k	-256
ident	-257
one	-258
ue	-259
ans	-260
▁one	-261
▁St	-262
ally	-263
ree	-264
der	-265
ice	-266
▁(	-267
ous	-268
ount	-269
▁cont	-270
ough	-271
▁pol	-272
▁they	-273
ack	-274
li	-275
▁his	-276
ag	-277
▁li	-278
▁whe	-279
▁man	-280
ep	-281
▁should	-282
▁who	-283
con	-284
cc	-285
lo	-286
▁Commission	-287
▁out	-288
▁about	-289
▁qu	-290
ime	-291
ide	-292
ap	-293
▁our	-294
ations	-295
ia	-296
ary	-297
ult	-298
ry	-299
▁their	-300
ok	-301
▁pe	-302
▁up	-303
▁This	-304
ame	-305
▁am	-306
reat	-307
▁inc	-308
▁part	-309
▁dis	-310
▁were	-311
▁fa	-312
▁year	-313
▁must	-314
▁than	-315
▁no	-316
use	-317
▁us	-318
▁K	-319
▁like	-320
▁-	-321
ays	-322
ance	-323
ine	-324
▁Un	-325
ire	-326
day	-327
ip	-328
ople	-329
able	-330
▁its	-331
ates	-332
ind	-333
▁so	-334
resident	-335
▁An	-336
ound	-337
▁report	-338
▁had	-339
▁need	-340
ated	-341
pport	-342
du	-343
▁per	-344
ish	-345
▁work	-346
age	-347
ark	-348
."	-349
pt	-350
▁He	-351
ical	-352
▁what	-353
int	-354
▁off	-355
,"	-356
ub	-357
▁people	-358
▁reg	-359
ction	-360
ments	-361
orm	-362
vel	-363
ress	-364
ence	-365
fore	-366
▁new	-367
are	-368
ven	-369
▁other	-370
▁po	-371
▁count	-372
▁over	-373
og	-374
ade	-375
ose	-376
▁ar	-377
▁very	-378
per	-379
▁rec	-380
ru	-381
▁comm	-382
ign	-383
▁Y	-384
▁my	-385
▁President	-386
ase	-387
lic	-388
now	-389
ition	-390
ink	-391
ament	-392
si	-393
wo	-394
ings	-395
▁Ch	-396
ew	-397
rit	-398
irst	-399
▁bec	-400
▁sp	-401
pect	-402
tern	-403
▁some	-404
▁time	-405
ens	-406
anc	-407
ise	-408
▁them	-409
▁cons	-410
ever	-411
▁app	-412
▁co	-413
arli	-414
▁pre	-415
ord	-416
▁these	-417
▁bet	-418
▁“	-419
fe	-420
ks	-421
▁any	-422
▁But	-423
▁cl	-424
▁te	-425
row	-426
pos	-427
▁200	-428
ite	-429
ric	-430
▁now	-431
iz	-432
te	-433
▁again	-434
▁sc	-435
▁ra	-436
cy	-437
▁lo	-438
▁your	-439
▁Wh	-440
ors	-441
fter	-442
rent	-443
▁right	-444
ious	-445
ational	-446
▁pos	-447
▁only	-448
▁under	-449
ell	-450
▁acc	-451
ach	-452
▁know	-453
old	-454
ace	-455
▁just	-456
▁import	-457
form	-458
▁ro	-459
▁ind	-460
▁two	-461
arliament	-462
▁dec	-463
▁conc	-464
▁into	-465
▁how	-466
▁There	-467
▁inv	-468
▁spe	-469
▁As	-470
▁when	-471
ved	-472
ang	-473
▁imp	-474
▁first	-475
ember	-476
ject	-477
ass	-478
▁ser	-479
ities	-480
hed	-481
▁gr	-482
▁good	-483
ounc	-484
ause	-485
hing	-486
▁want	-487
gr	-488
▁fin	-489
▁V	-490
▁EU	-491
▁say	-492
we	-493
ution	-494
▁if	-495
vern	-496
sel	-497
get	-498
▁That	-499
▁att	-500
mer	-501
▁support	-502
ail	-503
ian	-504
▁make	-505
own	-506
aw	-507
und	-508
▁3	-509
▁act	-510
ild	-511
▁iss	-512
▁Parliament	-513
▁pr	-514
▁Union	-515
uch	-516
conom	-517
▁mark	-518
ning	-519
▁after	-520
act	-521
ile	-522
▁her	-523
▁rem	-524
▁she	-525
▁point	-526
▁think	-527
▁On	-528
ms	-529
▁could	-530
▁bel	-531
▁take	-532
▁last	-533
als	-534
▁dif	-535
▁get	-536
oup	-537
ob	-538
▁And	-539
▁20	-540
▁add	-541
▁propos	-542
▁important	-543
ues	-544
amp	-545
ory	-546
▁eff	-547
man	-548
▁see	-549
▁years	-550
av	-551
▁exp	-552
ted	-553
arly	-554
lud	-555
ility	-556
ater	-557
▁way	-558
xt	-559
▁States	-560
ries	-561
ouncil	-562
oll	-563
▁polic	-564
▁every	-565
ful	-566
wn	-567
▁How	-568
▁vot	-569
▁made	-570
▁econom	-571
les	-572
ures	-573
cess	-574
▁'	-575
ces	-576
rough	-577
ting	-578
ick	-579
ublic	-580
ward	-581
ives	-582
▁rel	-583
ced	-584
hen	-585
▁many	-586
ieve	-587
▁ob	-588
ood	-589
tain	-590
▁market	-591
▁did	-592
pon	-593
ative	-594
velop	-595
ention	-596
▁proble	-597
ating	-598
▁being	-599
▁him	-600
ove	-601
▁polit	-602
read	-603
▁does	-604
iew	-605
▁Council	-606
ck	-607
urn	-608
ific	-609
▁long	-610
▁19	-611
▁cle	-612
ah	-613
ern	-614
▁much	-615
▁Member	-616
illion	-617
▁because	-618
▁To	-619
ov	-620
▁tak	-621
▁well	-622
▁quest	-623
▁against	-624
▁tra	-625
▁great	-626
▁govern	-627
▁most	-628
▁those	-629
other	-630
▁leg	-631
ft	-632
gy	-633
▁sub	-634
▁such	-635
▁dem	-636
▁em	-637
ason	-638
▁mon	-639
▁end	-640
The	-641
▁call	-642
▁too	-643
▁op	-644
lect	-645
▁ass	-646
▁They	-647
▁play	-648
▁prov	-649
▁produ	-650
resent	-651
▁str	-652
▁trans	-653
▁develop	-654
▁cr	-655
ange	-656
ied	-657
ween	-658
▁ter	-659
lp	-660
▁back	-661
▁countries	-662
▁inst	-663
rib	-664
ased	-665
▁includ	-666
led	-667
▁here	-668
▁may	-669
▁cour	-670
▁agree	-671
▁$	-672
▁between	-673
cept	-674
rest	-675
▁even	-676
▁then	-677
sible	-678
cond	-679
oth	-680
ict	-681
▁ac	-682
ib	-683
▁Re	-684
land	-685
▁still	-686
▁def	-687
▁before	-688
ank	-689
▁own	-690
▁4	-691
▁Con	-692
ited	-693
ouse	-694
▁respon	-695
irect	-696
cial	-697
▁deb	-698
▁disc	-699
▁bl	-700
▁fe	-701
▁5	-702
▁policy	-703
▁sit	-704
▁down	-705
▁help	-706
▁world	-707
ves	-708
▁mat	-709
ty	-710
▁ke	-711
ency	-712
▁says	-713
▁state	-714
yst	-715
▁look	-716
▁lead	-717
ife	-718
ual	-719
▁bo	-720
▁soc	-721
▁wee	-722
ts	-723
ince	-724
▁partic	-725
▁If	-726
▁through	-727
▁ev	-728
▁set	-729
any	-730
▁rep	-731
ath	-732
vers	-733
ised	-734
▁des	-735
not	-736
omet	-737
uring	-738
ph	-739
ope	-740
▁car	-741
ism	-742
▁min	-743
ents	-744
▁start	-745
ision	-746
▁high	-747
tle	-748
▁ext	-749
alth	-750
▁inte	-751
▁fact	-752
▁However	-753
▁believe	-754
▁What	-755
▁come	-756
uth	-757
ener	-758
▁ent	-759
▁gu	-760
▁appro	-761
▁where	-762
▁political	-763
▁country	-764
unity	-765
aj	-766
ving	-767
▁three	-768
gan	-769
▁You	-770
▁far	-771
▁incre	-772
▁therefore	-773
rat	-774
▁ask	-775
▁Sh	-776
cent	-777
▁201	-778
▁cannot	-779
▁For	-780
com	-781
▁concern	-782
▁Al	-783
me	-784
▁requ	-785
▁prot	-786
▁put	-787
▁same	-788
self	-789
▁contin	-790
ract	-791
▁sec	-792
▁conf	-793
▁bu	-794
▁Is	-795
au	-796
hip	-797
▁show	-798
▁fund	-799
▁De	-800
ork	-801
ready	-802
▁issue	-803
▁happ	-804
ters	-805
imes	-806
▁cur	-807
▁don	-808
ock	-809
▁Se	-810
▁today	-811
bers	-812
alk	-813
▁br	-814
▁going	-815
..	-816
ystem	-817
▁intern	-818
▁law	-819
▁question	-820
air	-821
ged	-822
▁sign	-823
arge	-824
▁already	-825
▁aw	-826
▁sm	-827
ather	-828
▁hand	-829
ower	-830
▁At	-831
ines	-832
▁mak	-833
▁num	-834
▁public	-835
▁direct	-836
gram	-837
uation	-838
▁invest	-839
its	-840
▁diffe	-841
ten	-842
ool	-843
▁fl	-844
▁All	-845
▁ref	-846
▁inform	-847
▁sur	-848
ne	-849
▁somet	-850
▁second	-851
000	-852
ices	-853
▁hum	-854
arch	-855
ef	-856
ists	-857
olog	-858
▁better	-859
▁million	-860
▁result	-861
▁government	-862
ax	-863
ital	-864
▁financ	-865
▁ap	-866
▁real	-867
ertain	-868
▁6	-869
▁use	-870
▁pers	-871
▁economic	-872
▁pri	-873
▁wom	-874
▁system	-875
ner	-876
▁month	-877
▁No	-878
ural	-879
▁So	-880
▁child	-881
▁ins	-882
loy	-883
▁particul	-884
ety	-885
▁sol	-886
▁cent	-887
uc	-888
ily	-889
ull	-890
▁serv	-891
ird	-892
▁New	-893
▁sim	-894
▁fut	-895
hes	-896
▁group	-897
ave	-898
ollow	-899
▁bus	-900
▁never	-901
iness	-902
.”	-903
ute	-904
▁inter	-905
▁case	-906
▁both	-907
gg	-908
meric	-909
▁meas	-910
ina	-911
ared	-912
ploy	-913
▁rights	-914
iven	-915
oney	-916
▁effect	-917
▁week	-918
ider	-919
▁percent	-920
▁future	-921
uss	-922
▁program	-923
▁however	-924
ix	-925
ins	-926
▁open	-927
ars	-928
▁ret	-929
▁offic	-930
min	-931
ys	-932
▁grow	-933
▁why	-934
ately	-935
▁without	-936
▁det	-937
▁expect	-938
▁another	-939
▁hope	-940
▁view	-941
▁though	-942
▁Le	-943
▁bro	-944
▁commit	-945
▁Pro	-946
▁things	-947
We	-948
▁human	-949
▁problem	-950
ness	-951
▁col	-952
▁Americ	-953
ond	-954
▁US	-955
ajor	-956
pr	-957
▁7	-958
▁few	-959
▁next	-960
▁proposal	-961
ways	-962
orth	-963
less	-964
▁Ind	-965
embers	-966
▁find	-967
▁Fr	-968
▁situation	-969
▁since	-970
chn	-971
ss	-972
arn	-973
▁follow	-974
▁med	-975
lement	-976
▁remain	-977
▁Commissioner	-978
ics	-979
ient	-980
▁clear	-981
▁regul	-982
ash	-983
▁Ar	-984
▁health	-985
▁protect	-986
▁course	-987
ying	-988
▁compet	-989
▁regard	-990
▁10	-991
▁day	-992
uthor	-993
▁life	-994
▁gener	-995
urity	-996
urther	-997
▁give	-998
▁social	-999
▁prev	-1000
inc	-1001
▁Be	-1002
▁really	-1003
itiz	-1004
ton	-1005
▁told	-1006
▁interest	-1007
▁av	-1008
▁level	-1009
▁financial	-1010
▁reason	-1011
▁information	-1012
ocrat	-1013
▁number	-1014
az	-1015
med	-1016
▁major	-1017
▁word	-1018
▁fr	-1019
▁cap	-1020
▁cor	-1021
thing	-1022
▁place	-1023
▁Q	-1024
ered	-1025
oper	-1026
ama	-1027
ger	-1028
▁big	-1029
▁lit	-1030
▁writ	-1031
▁something	-1032
▁meet	-1033
▁process	-1034
iti	-1035
▁Af	-1036
▁plan	-1037
ody	-1038
▁deal	-1039
▁neg	-1040
▁stand	-1041
▁ph	-1042
▁taken	-1043
▁certain	-1044
,”	-1045
▁main	-1046
sib	-1047
,000	-1048
▁run	-1049
oh	-1050
itive	-1051
riend	-1052
▁four	-1053
iron	-1054
▁beh	-1055
▁cond	-1056
▁done	-1057
ential	-1058
utions	-1059
▁found	-1060
ret	-1061
▁present	-1062
It	-1063
reed	-1064
▁current	-1065
▁sl	-1066
▁debate	-1067
▁possible	-1068
alf	-1069
come	-1070
▁She	-1071
rence	-1072
udget	-1073
ished	-1074
▁citiz	-1075
iss	-1076
▁care	-1077
▁job	-1078
▁always	-1079
arm	-1080
▁ris	-1081
▁amend	-1082
▁invol	-1083
▁rest	-1084
▁fam	-1085
ually	-1086
▁different	-1087
ross	-1088
▁dra	-1089
fic	-1090
▁vote	-1091
▁person	-1092
ister	-1093
▁pay	-1094
stand	-1095
▁prom	-1096
▁during	-1097
▁best	-1098
▁resol	-1099
▁national	-1100
▁adv	-1101
▁business	-1102
ined	-1103
ccess	-1104
▁home	-1105
urs	-1106
▁Ob	-1107
▁read	-1108
▁money	-1109
ling	-1110
▁aff	-1111
▁House	-1112
▁Go	-1113
▁women	-1114
▁inf	-1115
▁recent	-1116
▁ach	-1117
▁area	-1118
▁contro	-1119
isl	-1120
▁consider	-1121
▁8	-1122
▁ener	-1123
▁One	-1124
▁head	-1125
▁change	-1126
▁fore	-1127
▁env	-1128
ruct	-1129
▁mil	-1130
▁oper	-1131
▁const	-1132
▁9	-1133
▁wel	-1134
istan	-1135
▁used	-1136
▁let	-1137
▁international	-1138
▁appe	-1139
▁bas	-1140
ironment	-1141
▁citizens	-1142
▁ann	-1143
▁cost	-1144
▁allow	-1145
▁development	-1146
▁impro	-1147
▁author	-1148
▁indust	-1149
oint	-1150
▁examp	-1151
▁matter	-1152
mit	-1153
▁These	-1154
▁energy	-1155
pl	-1156
▁equ	-1157
▁elect	-1158
▁problems	-1159
work	-1160
ration	-1161
▁Gr	-1162
▁talk	-1163
▁budget	-1164
▁When	-1165
▁stud	-1166
ided	-1167
▁est	-1168
▁less	-1169
itions	-1170
ier	-1171
ield	-1172
▁seem	-1173
ficult	-1174
▁measures	-1175
son	-1176
▁cooper	-1177
▁ben	-1178
ai	-1179
tee	-1180
▁fav	-1181
▁kill	-1182
arg	-1183
▁comple	-1184
▁legisl	-1185
io	-1186
chool	-1187
▁2010	-1188
▁official	-1189
bal	-1190
erv	-1191
isation	-1192
▁action	-1193
▁difficult	-1194
▁crit	-1195
▁common	-1196
▁agreement	-1197
▁pass	-1198
ically	-1199
▁points	-1200
▁ed	-1201
▁tax	-1202
▁little	-1203
▁air	-1204
▁spec	-1205
▁success	-1206
oura	-1207
▁techn	-1208
▁further	-1209
here	-1210
▁Rep	-1211
▁United	-1212
ral	-1213
▁En	-1214
▁adop	-1215
▁ens	-1216
▁respect	-1217
▁including	-1218
ense	-1219
▁Brit	-1220
▁friend	-1221
▁rul	-1222
orn	-1223
▁power	-1224
▁company	-1225
▁beg	-1226
▁accept	-1227
▁speak	-1228
▁needs	-1229
▁children	-1230
▁Z	-1231
oot	-1232
▁val	-1233
▁within	-1234
ale	-1235
▁Am	-1236
line	-1237
▁turn	-1238
▁consum	-1239
▁rev	-1240
▁exper	-1241
▁organ	-1242
▁happen	-1243
▁instit	-1244
▁means	-1245
▁while	-1246
▁won	-1247
▁issues	-1248
gress	-1249
▁short	-1250
ex	-1251
▁move	-1252
imin	-1253
▁China	-1254
▁ide	-1255
▁step	-1256
▁small	-1257
▁strong	-1258
ience	-1259
▁feel	-1260
▁given	-1261
ror	-1262
▁mod	-1263
▁least	-1264
▁security	-1265
▁Pol	-1266
▁keep	-1267
▁Obama	-1268
▁Mon	-1269
▁dep	-1270
▁men	-1271
ages	-1272
ants	-1273
ets	-1274
▁Min	-1275
▁vis	-1276
▁cris	-1277
ases	-1278
outh	-1279
▁post	-1280
▁environment	-1281
ran	-1282
incip	-1283
▁With	-1284
ably	-1285
▁Let	-1286
▁product	-1287
ims	-1288
▁ple	-1289
▁prof	-1290
▁princip	-1291
ired	-1292
▁got	-1293
ability	-1294
ons	-1295
wards	-1296
▁thank	-1297
▁loc	-1298
▁around	-1299
▁lot	-1300
ality	-1301
▁role	-1302
▁team	-1303
▁order	-1304
▁thing	-1305
▁sect	-1306
▁become	-1307
▁example	-1308
▁top	-1309
▁able	-1310
ording	-1311
▁third	-1312
▁opport	-1313
ames	-1314
ending	-1315
used	-1316
▁tri	-1317
▁whether	-1318
▁che	-1319
iving	-1320
▁contrib	-1321
▁199	-1322
▁fac	-1323
▁dist	-1324
▁fail	-1325
pporte	-1326
tic	-1327
▁free	-1328
sw	-1329
ug	-1330
▁Mrs	-1331
allen	-1332
▁rapporte	-1333
the	-1334
ising	-1335
▁chang	-1336
be	-1337
ides	-1338
▁hard	-1339
▁old	-1340
▁redu	-1341
▁project	-1342
oti	-1343
▁win	-1344
▁rece	-1345
▁effort	-1346
leg	-1347
▁left	-1348
▁implement	-1349
▁opp	-1350
▁each	-1351
eed	-1352
▁ban	-1353
▁large	-1354
ards	-1355
▁dri	-1356
▁attack	-1357
▁position	-1358
mber	-1359
▁cooperation	-1360
▁cre	-1361
▁continue	-1362
▁crisis	-1363
▁object	-1364
▁forward	-1365
iol	-1366
▁ur	-1367
ivers	-1368
▁account	-1369
▁11	-1370
▁met	-1371
▁enough	-1372
ession	-1373
▁nothing	-1374
men	-1375
▁Dem	-1376
▁past	-1377
▁pract	-1378
▁region	-1379
ified	-1380
▁form	-1381
▁benef	-1382
ief	-1383
selves	-1384
▁employ	-1385
▁Mad	-1386
▁areas	-1387
▁strate	-1388
▁trade	-1389
lection	-1390
▁serious	-1391
▁eas	-1392
lus	-1393
ook	-1394
sibility	-1395
iting	-1396
▁expl	-1397
▁added	-1398
▁police	-1399
▁understand	-1400
▁Sc	-1401
▁treat	-1402
▁called	-1403
▁Ab	-1404
oung	-1405
▁negoti	-1406
▁decision	-1407
lobal	-1408
▁supp	-1409
▁build	-1410
augh	-1411
year	-1412
▁away	-1413
▁tell	-1414
▁control	-1415
aps	-1416
▁clo	-1417
0.	-1418
par	-1419
▁Do	-1420
iety	-1421
▁simp	-1422
▁necess	-1423
▁school	-1424
▁--	-1425
▁food	-1426
ury	-1427
▁working	-1428
▁–	-1429
ners	-1430
▁fil	-1431
▁days	-1432
oss	-1433
ived	-1434
▁ago	-1435
▁yet	-1436
over	-1437
▁wish	-1438
▁ca	-1439
▁list	-1440
▁services	-1441
oy	-1442
▁months	-1443
▁progress	-1444
ources	-1445
▁Fin	-1446
arent	-1447
▁makes	-1448
rodu	-1449
ference	-1450
▁represent	-1451
reak	-1452
▁close	-1453
ology	-1454
▁ensure	-1455
▁By	-1456
▁2009	-1457
atives	-1458
gether	-1459
▁return	-1460
▁mention	-1461
▁together	-1462
▁Sp	-1463
▁might	-1464
▁es	-1465
▁war	-1466
arter	-1467
idence	-1468
eb	-1469
▁once	-1470
▁reform	-1471
▁My	-1472
ances	-1473
▁rele	-1474
▁welcome	-1475
▁news	-1476
▁rese	-1477
▁often	-1478
▁words	-1479
▁Intern	-1480
aid	-1481
atch	-1482
▁Jan	-1483
▁nat	-1484
imate	-1485
▁Some	-1486
▁15	-1487
ible	-1488
ours	-1489
▁pop	-1490
▁el	-1491
▁bad	-1492
▁cut	-1493
▁mean	-1494
▁press	-1495
sh	-1496
▁relations	-1497
ining	-1498
▁viol	-1499
▁heart	-1500
▁economy	-1501
ands	-1502
ither	-1503
▁State	-1504
▁rapporteur	-1505
▁particular	-1506
app	-1507
reen	-1508
▁came	-1509
▁death	-1510
▁later	-1511
ec	-1512
ont	-1513
resid	-1514
▁full	-1515
ended	-1516
▁camp	-1517
Th	-1518
▁game	-1519
ulation	-1520
▁sal	-1521
▁doing	-1522
▁industry	-1523
ee	-1524
ured	-1525
▁whole	-1526
▁favour	-1527
ians	-1528
lish	-1529
▁water	-1530
▁season	-1531
▁increase	-1532
▁answ	-1533
▁clos	-1534
▁test	-1535
▁challen	-1536
▁particularly	-1537
gu	-1538
▁Now	-1539
▁subject	-1540
nes	-1541
▁May	-1542
▁half	-1543
▁fight	-1544
▁rules	-1545
oub	-1546
▁12	-1547
▁aid	-1548
▁others	-1549
▁Ger	-1550
▁hold	-1551
▁bring	-1552
til	-1553
ffic	-1554
▁initi	-1555
▁prior	-1556
▁share	-1557
▁among	-1558
▁milit	-1559
▁making	-1560
fort	-1561
▁stop	-1562
▁vict	-1563
ium	-1564
▁mom	-1565
▁sing	-1566
▁president	-1567
▁Ad	-1568
▁legal	-1569
▁members	-1570
residency	-1571
▁Republic	-1572
▁Pr	-1573
▁pat	-1574
▁six	-1575
▁resolution	-1576
▁kind	-1577
▁shall	-1578
side	-1579
▁2008	-1580
▁growth	-1581
▁—	-1582
▁occ	-1583
▁seen	-1584
▁times	-1585
▁billion	-1586
raph	-1587
▁trad	-1588
▁protection	-1589
▁Ag	-1590
▁compan	-1591
▁family	-1592
▁approach	-1593
▁sw	-1594
▁begin	-1595
▁dr	-1596
▁net	-1597
▁Democrat	-1598
).	-1599
arity	-1600
ension	-1601
idd	-1602
▁Group	-1603
▁provide	-1604
uge	-1605
▁Br	-1606
▁asked	-1607
▁quite	-1608
▁young	-1609
▁global	-1610
▁activ	-1611
▁avail	-1612
vernment	-1613
most	-1614
▁pot	-1615
▁hist	-1616
▁lost	-1617
▁access	-1618
▁sector	-1619
▁taking	-1620
ises	-1621
▁More	-1622
▁five	-1623
▁legislation	-1624
▁mor	-1625
▁effective	-1626
omp	-1627
utes	-1628
▁Bar	-1629
▁Not	-1630
▁name	-1631
▁sever	-1632
▁specific	-1633
▁directive	-1634
ges	-1635
ators	-1636
isions	-1637
▁night	-1638
▁necessary	-1639
▁Cl	-1640
racy	-1641
▁mar	-1642
▁estab	-1643
▁proced	-1644
aff	-1645
▁sk	-1646
▁cla	-1647
▁dev	-1648
▁didn	-1649
pecial	-1650
▁creat	-1651
light	-1652
▁mind	-1653
▁opin	-1654
▁Madam	-1655
co	-1656
ohn	-1657
▁hon	-1658
▁companies	-1659
go	-1660
iod	-1661
▁lim	-1662
▁educ	-1663
ressed	-1664
enn	-1665
une	-1666
ison	-1667
▁comes	-1668
ata	-1669
▁ey	-1670
▁Pak	-1671
▁ful	-1672
aster	-1673
▁fall	-1674
▁early	-1675
▁terms	-1676
▁voted	-1677
...	-1678
ivil	-1679
▁pur	-1680
▁sum	-1681
▁tar	-1682
▁First	-1683
▁several	-1684
aring	-1685
▁Every	-1686
ote	-1687
iday	-1688
rict	-1689
▁Tur	-1690
▁took	-1691
▁house	-1692
▁results	-1693
▁Community	-1694
▁authorities	-1695
▁£	-1696
ized	-1697
▁His	-1698
▁enc	-1699
▁exc	-1700
▁live	-1701
▁peace	-1702
▁available	-1703
▁ve	-1704
asing	-1705
reedom	-1706
▁itself	-1707
▁amendments	-1708
rael	-1709
▁face	-1710
▁terror	-1711
▁general	-1712
ler	-1713
ivid	-1714
▁risk	-1715
▁Pakistan	-1716
osp	-1717
ched	-1718
itor	-1719
▁Sun	-1720
▁soon	-1721
▁threat	-1722
▁concerned	-1723
▁statement	-1724
iation	-1725
▁court	-1726
▁local	-1727
▁discuss	-1728
▁towards	-1729
▁proposals	-1730
irm	-1731
fety	-1732
▁var	-1733
▁improve	-1734
▁special	-1735
▁positive	-1736
▁light	-1737
▁opportunity	-1738
1.	-1739
▁final	-1740
▁German	-1741
▁concerns	-1742
▁attention	-1743
20	-1744
▁Bl	-1745
empt	-1746
lear	-1747
▁priv	-1748
▁Afric	-1749
▁proper	-1750
▁expected	-1751
rong	-1752
▁Man	-1753
ering	-1754
▁sent	-1755
lished	-1756
▁Israel	-1757
▁behind	-1758
▁needed	-1759
▁addition	-1760
▁programme	-1761
▁lab	-1762
▁love	-1763
minist	-1764
▁Tr	-1765
▁ess	-1766
▁non	-1767
ained	-1768
orrow	-1769
▁exist	-1770
▁questions	-1771
ify	-1772
ried	-1773
▁extre	-1774
▁affect	-1775
▁responsibility	-1776
ott	-1777
▁Wor	-1778
▁jud	-1779
▁key	-1780
▁thought	-1781
rist	-1782
▁conv	-1783
▁fell	-1784
▁rather	-1785
ats	-1786
ued	-1787
ored	-1788
ggest	-1789
▁sure	-1790
▁achieve	-1791
▁American	-1792
▁institutions	-1793
ley	-1794
epend	-1795
▁John	-1796
▁until	-1797
▁involved	-1798
▁products	-1799
▁Ex	-1800
▁Or	-1801
ences	-1802
▁signific	-1803
▁Mar	-1804
▁sus	-1805
▁Pe	-1806
▁char	-1807
▁moment	-1808
▁saying	-1809
▁suggest	-1810
▁After	-1811
▁comment	-1812
rop	-1813
▁Mc	-1814
▁cho	-1815
▁cred	-1816
▁line	-1817
▁oppos	-1818
ultural	-1819
▁investig	-1820
ik	-1821
cing	-1822
▁abs	-1823
ached	-1824
▁bank	-1825
▁comb	-1826
▁spok	-1827
▁research	-1828
▁conditions	-1829
BC	-1830
bs	-1831
by	-1832
ham	-1833
rug	-1834
ush	-1835
▁14	-1836
reng	-1837
▁went	-1838
▁Treat	-1839
▁civil	-1840
ead	-1841
way	-1842
▁tot	-1843
ussia	-1844
▁Members	-1845
▁officials	-1846
entle	-1847
▁mess	-1848
▁opinion	-1849
▁started	-1850
▁Sw	-1851
lood	-1852
ring	-1853
▁foc	-1854
▁mov	-1855
▁decl	-1856
though	-1857
▁inj	-1858
▁opt	-1859
agement	-1860
▁target	-1861
▁British	-1862
▁Minister	-1863
ior	-1864
▁Ha	-1865
▁Li	-1866
aged	-1867
▁clearly	-1868
ize	-1869
ogn	-1870
ulture	-1871
▁streng	-1872
▁introdu	-1873
aun	-1874
uck	-1875
▁Our	-1876
▁quick	-1877
▁having	-1878
▁period	-1879
pecially	-1880
▁leaders	-1881
sc	-1882
por	-1883
▁Te	-1884
ging	-1885
unic	-1886
ocracy	-1887
▁field	-1888
itution	-1889
rown	-1890
▁road	-1891
▁March	-1892
▁Commit	-1893
▁certainly	-1894
ze	-1895
▁18	-1896
aren	-1897
ones	-1898
▁Afgh	-1899
▁ever	-1900
key	-1901
▁gl	-1902
ague	-1903
▁fig	-1904
▁book	-1905
▁gentle	-1906
ussion	-1907
▁anything	-1908
▁military	-1909
els	-1910
▁data	-1911
▁service	-1912
▁Co	-1913
▁jobs	-1914
▁true	-1915
▁answer	-1916
▁freedom	-1917
▁jo	-1918
pped	-1919
▁Eng	-1920
▁meeting	-1921
▁essential	-1922
▁Qu	-1923
ober	-1924
ieved	-1925
▁text	-1926
▁World	-1927
▁Committee	-1928
▁Ph	-1929
▁broad	-1930
▁Monday	-1931
▁strategy	-1932
new	-1933
rup	-1934
▁due	-1935
▁Russia	-1936
▁efforts	-1937
mb	-1938
head	-1939
ream	-1940
▁based	-1941
ourt	-1942
▁mis	-1943
▁mot	-1944
arant	-1945
▁dead	-1946
▁coming	-1947
▁integr	-1948
▁safety	-1949
▁individ	-1950
▁according	-1951
▁idea	-1952
▁break	-1953
▁frame	-1954
▁longer	-1955
▁require	-1956
▁complete	-1957
▁reported	-1958
▁ill	-1959
▁low	-1960
adies	-1961
▁link	-1962
▁basis	-1963
▁Afghan	-1964
urd	-1965
▁30	-1966
uted	-1967
▁society	-1968
▁education	-1969
▁transport	-1970
ceed	-1971
uary	-1972
▁pric	-1973
iously	-1974
▁seems	-1975
to	-1976
ocu	-1977
nect	-1978
▁fun	-1979
anger	-1980
▁Many	-1981
▁miss	-1982
▁side	-1983
▁across	-1984
▁simply	-1985
ned	-1986
▁ce	-1987
▁Can	-1988
▁principle	-1989
▁especially	-1990
▁significant	-1991
iet	-1992
rate	-1993
▁city	-1994
▁fair	-1995
▁following	-1996
for	-1997
▁recogn	-1998
▁adopted	-1999
▁encoura	-2000
▁administ	-2001
ww	-2002
aign	-2003
▁inn	-2004
▁Part	-2005
▁North	-2006
▁record	-2007
▁greater	-2008
▁prevent	-2009
sequ	-2010
ordin	-2011
▁emer	-2012
▁colle	-2013
▁weeks	-2014
▁transp	-2015
▁markets	-2016
▁resources	-2017
▁everything	-2018
2.	-2019
aper	-2020
▁eng	-2021
▁imm	-2022
▁try	-2023
▁Will	-2024
▁suff	-2025
▁actually	-2026
▁proposed	-2027
ev	-2028
ports	-2029
▁Just	-2030
fortun	-2031
▁party	-2032
▁detail	-2033
▁recomm	-2034
ron	-2035
▁Iran	-2036
▁fire	-2037
▁ident	-2038
▁former	-2039
▁killed	-2040
▁trying	-2041
▁reports	-2042
▁everyone	-2043
▁policies	-2044
▁gentlemen	-2045
lex	-2046
ump	-2047
ung	-2048
ator	-2049
▁Feb	-2050
▁bal	-2051
▁hig	-2052
ently	-2053
ustom	-2054
▁Gree	-2055
▁held	-2056
▁infl	-2057
ashing	-2058
▁wrong	-2059
▁democracy	-2060
▁potential	-2061
▁wa	-2062
atic	-2063
amental	-2064
▁January	-2065
▁workers	-2066
▁discussion	-2067
bon	-2068
▁docu	-2069
uesday	-2070
▁entire	-2071
▁ground	-2072
▁writing	-2073
mes	-2074
▁13	-2075
▁Of	-2076
▁ty	-2077
ires	-2078
▁Car	-2079
▁lack	-2080
ounced	-2081
uclear	-2082
▁Tuesday	-2083
▁friends	-2084
irc	-2085
▁hit	-2086
▁Court	-2087
▁along	-2088
▁almost	-2089
▁demand	-2090
▁impact	-2091
▁guarant	-2092
▁Government	-2093
rew	-2094
grat	-2095
haps	-2096
hern	-2097
ression	-2098
iversity	-2099
▁themselves	-2100
ony	-2101
body	-2102
uses	-2103
▁Sen	-2104
gratul	-2105
▁plans	-2106
▁groups	-2107
▁review	-2108
▁getting	-2109
▁perform	-2110
▁congratul	-2111
▁late	-2112
▁stri	-2113
▁India	-2114
af	-2115
ots	-2116
sec	-2117
eder	-2118
oman	-2119
▁force	-2120
▁heard	-2121
▁Treaty	-2122
▁extreme	-2123
▁campaign	-2124
medi	-2125
▁bit	-2126
▁foot	-2127
▁spokes	-2128
▁address	-2129
▁importance	-2130
▁regulation	-2131
pri	-2132
▁par	-2133
▁draw	-2134
▁prep	-2135
▁arrest	-2136
▁request	-2137
▁democrat	-2138
lam	-2139
uly	-2140
ains	-2141
cell	-2142
▁Aust	-2143
▁seek	-2144
▁subst	-2145
angu	-2146
▁Dav	-2147
▁Sec	-2148
▁Wed	-2149
▁cand	-2150
▁Thurs	-2151
▁cases	-2152
▁looking	-2153
▁election	-2154
▁received	-2155
fer	-2156
▁16	-2157
▁Dece	-2158
▁fully	-2159
vention	-2160
▁Thursday	-2161
▁partners	-2162
▁Presidency	-2163
acy	-2164
▁25	-2165
hers	-2166
ourn	-2167
▁Ira	-2168
▁den	-2169
▁pack	-2170
▁stat	-2171
▁South	-2172
▁funds	-2173
▁Friday	-2174
▁remains	-2175
-1	-2176
arth	-2177
▁Col	-2178
▁Iraq	-2179
▁create	-2180
▁quarter	-2181
▁independ	-2182
▁environmental	-2183
irl	-2184
nesday	-2185
▁learn	-2186
▁parliament	-2187
".	-2188
atur	-2189
▁Ass	-2190
▁doub	-2191
▁drug	-2192
ensive	-2193
▁assist	-2194
▁danger	-2195
▁December	-2196
yn	-2197
ude	-2198
▁tal	-2199
fully	-2200
order	-2201
▁anal	-2202
▁upon	-2203
▁agric	-2204
▁solution	-2205
▁Wednesday	-2206
▁increasing	-2207
▁negotiations	-2208
AP	-2209
ows	-2210
▁age	-2211
▁fear	-2212
▁mother	-2213
ashington	-2214
▁framework	-2215
▁competition	-2216
ti	-2217
iam	-2218
▁Ne	-2219
▁er	-2220
▁Res	-2221
▁body	-2222
▁critic	-2223
▁office	-2224
▁include	-2225
▁production	-2226
),	-2227
of	-2228
ean	-2229
term	-2230
▁del	-2231
ories	-2232
unities	-2233
▁Sunday	-2234
▁capital	-2235
▁nuclear	-2236
▁$1	-2237
ends	-2238
▁aim	-2239
▁committee	-2240
▁currently	-2241
ape	-2242
ert	-2243
▁ri	-2244
▁Last	-2245
▁morning	-2246
ball	-2247
ular	-2248
▁Med	-2249
▁ver	-2250
▁Cent	-2251
▁bill	-2252
▁desc	-2253
▁event	-2254
ilities	-2255
▁prices	-2256
▁states	-2257
▁wanted	-2258
ification	-2259
▁Gu	-2260
ened	-2261
rupt	-2262
▁Why	-2263
▁2007	-2264
▁laun	-2265
▁near	-2266
▁sold	-2267
▁weak	-2268
▁sense	-2269
▁amount	-2270
▁single	-2271
br	-2272
ery	-2273
pite	-2274
▁anim	-2275
▁circ	-2276
▁doesn	-2277
mp	-2278
▁i	-2279
ann	-2280
ule	-2281
▁Ge	-2282
reet	-2283
▁poor	-2284
rought	-2285
▁cover	-2286
▁immedi	-2287
▁Tod	-2288
▁cru	-2289
▁Amend	-2290
▁Christ	-2291
▁foreign	-2292
5.	-2293
oke	-2294
ighb	-2295
lies	-2296
▁avo	-2297
▁dam	-2298
▁York	-2299
▁orig	-2300
▁costs	-2301
▁leave	-2302
▁wants	-2303
wh	-2304
▁.	-2305
airs	-2306
▁Pal	-2307
iding	-2308
▁West	-2309
▁aware	-2310
▁America	-2311
▁Washington	-2312
This	-2313
omin	-2314
view	-2315
▁rate	-2316
▁repe	-2317
▁safe	-2318
▁parties	-2319
▁reached	-2320
▁goes	-2321
▁cause	-2322
▁hours	-2323
ilar	-2324
▁sen	-2325
▁Then	-2326
▁fish	-2327
▁huge	-2328
▁pres	-2329
▁worth	-2330
ospital	-2331
▁reject	-2332
▁quality	-2333
▁majority	-2334
▁mentioned	-2335
▁management	-2336
umb	-2337
▁land	-2338
▁price	-2339
▁solid	-2340
▁outside	-2341
my	-2342
▁Ed	-2343
▁Pl	-2344
ogue	-2345
onst	-2346
▁Acc	-2347
▁Bel	-2348
ouble	-2349
▁Port	-2350
arlier	-2351
▁langu	-2352
▁visit	-2353
▁custom	-2354
▁origin	-2355
▁climate	-2356
▁private	-2357
▁response	-2358
▁fundamental	-2359
3.	-2360
ees	-2361
ney	-2362
▁deep	-2363
▁deli	-2364
▁prob	-2365
▁known	-2366
▁reach	-2367
▁refer	-2368
cl	-2369
ask	-2370
omes	-2371
▁gen	-2372
▁coup	-2373
ograph	-2374
▁focus	-2375
▁sales	-2376
▁nation	-2377
▁history	-2378
▁Therefore	-2379
eng	-2380
mak	-2381
oon	-2382
▁50	-2383
ondon	-2384
▁farm	-2385
▁loss	-2386
▁deter	-2387
▁Second	-2388
▁changes	-2389
▁recently	-2390
val	-2391
▁Kh	-2392
pose	-2393
rect	-2394
rend	-2395
isher	-2396
▁Even	-2397
▁lives	-2398
▁aspect	-2399
▁reasons	-2400
▁particip	-2401
▁elections	-2402
▁increased	-2403
aut	-2404
hest	-2405
▁aut	-2406
▁oil	-2407
▁forces	-2408
▁quickly	-2409
▁happened	-2410
cer	-2411
▁wind	-2412
▁happy	-2413
▁super	-2414
ris	-2415
▁17	-2416
fact	-2417
rief	-2418
ening	-2419
▁else	-2420
▁mult	-2421
▁tele	-2422
▁term	-2423
▁using	-2424
▁assess	-2425
▁appropri	-2426
▁consumers	-2427
▁‘	-2428
reg	-2429
▁UK	-2430
▁Cal	-2431
▁dest	-2432
▁harm	-2433
▁stru	-2434
▁Today	-2435
▁London	-2436
▁various	-2437
▁announced	-2438
fortunately	-2439
▁democratic	-2440
cise	-2441
erve	-2442
▁Apr	-2443
olute	-2444
▁claim	-2445
▁candid	-2446
▁Finally	-2447
▁brought	-2448
▁contract	-2449
▁community	-2450
lf	-2451
att	-2452
lied	-2453
▁stay	-2454
▁Other	-2455
▁compl	-2456
▁media	-2457
▁likely	-2458
▁investment	-2459
▁technology	-2460
ene	-2461
ept	-2462
▁div	-2463
ffice	-2464
ights	-2465
▁mist	-2466
ustain	-2467
▁carry	-2468
▁offer	-2469
▁separ	-2470
▁building	-2471
▁establish	-2472
▁initiative	-2473
4.	-2474
isc	-2475
arian	-2476
▁hands	-2477
▁Turkey	-2478
▁comprom	-2479
▁message	-2480
▁decisions	-2481
▁interests	-2482
6.	-2483
aul	-2484
atis	-2485
▁Soc	-2486
▁pub	-2487
ledge	-2488
▁goal	-2489
▁ahead	-2490
▁defin	-2491
▁indic	-2492
▁attempt	-2493
▁projects	-2494
omb	-2495
ares	-2496
oved	-2497
▁EUR	-2498
▁amb	-2499
ticle	-2500
▁value	-2501
▁violence	-2502
▁extremely	-2503
▁employment	-2504
ane	-2505
lig	-2506
▁Sa	-2507
▁tw	-2508
cast	-2509
enda	-2510
▁God	-2511
▁Lis	-2512
▁enl	-2513
▁argu	-2514
▁total	-2515
▁minutes	-2516
▁talking	-2517
He	-2518
ota	-2519
▁Mus	-2520
▁saw	-2521
▁yes	-2522
▁euro	-2523
▁cross	-2524
▁story	-2525
ovember	-2526
▁agreed	-2527
▁ladies	-2528
▁neighb	-2529
▁responsible	-2530
▁shows	-2531
▁applic	-2532
30	-2533
serv	-2534
▁Cong	-2535
▁Fund	-2536
▁exec	-2537
▁room	-2538
▁self	-2539
▁adopt	-2540
▁sound	-2541
▁conclus	-2542
▁similar	-2543
▁Democrats	-2544
ij	-2545
▁Per	-2546
▁buy	-2547
▁sex	-2548
▁News	-2549
▁easy	-2550
▁pain	-2551
ederal	-2552
mitted	-2553
▁woman	-2554
▁indeed	-2555
▁connect	-2556
▁demonst	-2557
▁pressure	-2558
▁0	-2559
off	-2560
▁0.	-2561
sian	-2562
▁bar	-2563
lling	-2564
▁pros	-2565
▁Police	-2566
▁became	-2567
▁design	-2568
▁evidence	-2569
▁amendment	-2570
oe	-2571
hel	-2572
aced	-2573
▁Two	-2574
▁bra	-2575
ature	-2576
iddle	-2577
▁coll	-2578
▁ones	-2579
▁takes	-2580
▁living	-2581
igration	-2582
▁funding	-2583
▁November	-2584
▁communic	-2585
▁practice	-2586
▁International	-2587
hic	-2588
▁Cor	-2589
where	-2590
▁chief	-2591
▁seven	-2592
▁excell	-2593
▁benefit	-2594
▁recommend	-2595
▁developing	-2596
TO	-2597
ift	-2598
ops	-2599
que	-2600
There	-2601
atory	-2602
▁gave	-2603
employ	-2604
▁banks	-2605
▁watch	-2606
▁brother	-2607
▁priority	-2608
2,	-2609
oci	-2610
cies	-2611
▁BBC	-2612
▁lat	-2613
▁und	-2614
istic	-2615
▁died	-2616
▁stra	-2617
ctions	-2618
▁Satur	-2619
▁class	-2620
▁instru	-2621
▁matters	-2622
▁internal	-2623
ids	-2624
rimin	-2625
▁coun	-2626
▁film	-2627
▁sche	-2628
idents	-2629
reland	-2630
undred	-2631
▁Islam	-2632
▁alone	-2633
▁staff	-2634
▁chance	-2635
▁Germany	-2636
▁Saturday	-2637
▁consumer	-2638
▁included	-2639
▁training	-2640
▁implementation	-2641
DE	-2642
elt	-2643
▁Sm	-2644
▁contr	-2645
▁respond	-2646
50	-2647
ban	-2648
ades	-2649
fect	-2650
▁100	-2651
▁Mor	-2652
▁red	-2653
▁ball	-2654
arency	-2655
▁thous	-2656
artment	-2657
▁struct	-2658
▁required	-2659
▁individual	-2660
eth	-2661
▁40	-2662
▁Reg	-2663
▁gra	-2664
▁urg	-2665
▁pict	-2666
▁black	-2667
▁France	-2668
▁Lisbon	-2669
▁People	-2670
▁parent	-2671
▁describ	-2672
-0	-2673
▁Lab	-2674
▁tom	-2675
▁Bank	-2676
▁dial	-2677
▁rise	-2678
▁April	-2679
▁Where	-2680
▁reduce	-2681
▁Ireland	-2682
▁someone	-2683
▁absolute	-2684
▁maintain	-2685
▁provided	-2686
▁procedure	-2687
▁[	-2688
ext	-2689
oul	-2690
back	-2691
▁fra	-2692
▁Haiti	-2693
▁began	-2694
▁mater	-2695
▁talks	-2696
▁raised	-2697
▁himself	-2698
▁beginning	-2699
▁standards	-2700
ps	-2701
ech	-2702
▁led	-2703
▁vol	-2704
anced	-2705
rench	-2706
▁Comp	-2707
▁agenda	-2708
▁reality	-2709
▁probably	-2710
irt	-2711
rel	-2712
rem	-2713
▁Fl	-2714
▁di	-2715
amer	-2716
ches	-2717
gest	-2718
▁dise	-2719
▁relig	-2720
▁Africa	-2721
▁either	-2722
▁leader	-2723
▁coordin	-2724
▁Bro	-2725
▁site	-2726
▁above	-2727
▁vehic	-2728
▁appear	-2729
▁credit	-2730
▁myself	-2731
▁conflic	-2732
▁decided	-2733
▁Internet	-2734
▁achieved	-2735
▁tomorrow	-2736
tt	-2737
ana	-2738
uel	-2739
▁21	-2740
▁af	-2741
duct	-2742
▁Har	-2743
▁Her	-2744
▁Sch	-2745
▁ord	-2746
lying	-2747
▁calls	-2748
▁effic	-2749
▁surpr	-2750
▁monitor	-2751
▁compromise	-2752
oud	-2753
alled	-2754
▁Geor	-2755
▁Mark	-2756
▁aver	-2757
issions	-2758
▁Afghanistan	-2759
alt	-2760
They	-2761
hold	-2762
▁Oct	-2763
ruary	-2764
▁debt	-2765
▁disp	-2766
▁poll	-2767
▁stage	-2768
▁whose	-2769
▁father	-2770
▁content	-2771
▁earlier	-2772
▁personal	-2773
▁excellent	-2774
▁congratulate	-2775
'.	-2776
ox	-2777
uff	-2778
▁Don	-2779
▁art	-2780
▁ten	-2781
▁innov	-2782
▁round	-2783
▁scient	-2784
▁National	-2785
▁spokesman	-2786
▁transparency	-2787
▁Net	-2788
▁rad	-2789
▁unc	-2790
ender	-2791
▁slow	-2792
▁Thank	-2793
▁study	-2794
▁promot	-2795
▁Britain	-2796
▁players	-2797
▁February	-2798
▁previous	-2799
ume	-2800
yond	-2801
▁flo	-2802
▁tou	-2803
▁Ital	-2804
▁lower	-2805
itional	-2806
▁Direct	-2807
▁context	-2808
▁victims	-2809
▁spending	-2810
You	-2811
apan	-2812
wise	-2813
▁From	-2814
▁arri	-2815
▁shot	-2816
▁liber	-2817
▁trial	-2818
▁behalf	-2819
▁objective	-2820
.)	-2821
.,	-2822
200	-2823
▁bat	-2824
utive	-2825
▁Sept	-2826
▁hear	-2827
vision	-2828
▁famil	-2829
▁impos	-2830
ruction	-2831
▁French	-2832
▁nature	-2833
▁played	-2834
▁terrorism	-2835
▁appropriate	-2836
▁governments	-2837
ael	-2838
▁Pat	-2839
▁ste	-2840
inese	-2841
▁girl	-2842
▁wife	-2843
idered	-2844
▁Japan	-2845
▁exact	-2846
▁joint	-2847
▁trust	-2848
▁higher	-2849
▁regions	-2850
▁highlight	-2851
▁ourselves	-2852
▁commitment	-2853
▁relationship	-2854
uk	-2855
▁1.	-2856
ager	-2857
time	-2858
▁...	-2859
▁nor	-2860
verty	-2861
▁Mich	-2862
▁emph	-2863
▁Never	-2864
▁truth	-2865
▁crimin	-2866
▁Chinese	-2867
▁actions	-2868
▁correct	-2869
▁enlarge	-2870
▁poverty	-2871
▁dialogue	-2872
▁language	-2873
▁According	-2874
▁businesses	-2875
▁considered	-2876
▁experience	-2877
TM	-2878
▁cat	-2879
▁hor	-2880
ource	-2881
▁Kore	-2882
▁David	-2883
ception	-2884
▁travel	-2885
▁England	-2886
▁sustain	-2887
iter	-2888
ival	-2889
▁cal	-2890
▁gas	-2891
▁hot	-2892
▁Inst	-2893
▁repl	-2894
▁Prime	-2895
ibility	-2896
▁nearly	-2897
▁series	-2898
▁crucial	-2899
▁population	-2900
ilt	-2901
oph	-2902
sid	-2903
unt	-2904
▁hop	-2905
▁obv	-2906
▁June	-2907
▁firm	-2908
▁port	-2909
▁rule	-2910
▁tour	-2911
▁Brown	-2912
aughter	-2913
▁anyone	-2914
▁worked	-2915
▁consult	-2916
▁comments	-2917
▁hospital	-2918
dd	-2919
aving	-2920
illeg	-2921
ously	-2922
ournal	-2923
urance	-2924
▁knows	-2925
iveness	-2926
▁Senate	-2927
▁network	-2928
▁regional	-2929
yl	-2930
▁23	-2931
band	-2932
▁Pet	-2933
▁War	-2934
▁mer	-2935
▁pen	-2936
▁anti	-2937
▁mass	-2938
▁paid	-2939
astern	-2940
▁White	-2941
▁board	-2942
▁influ	-2943
▁benefits	-2944
▁students	-2945
▁mob	-2946
▁tem	-2947
ought	-2948
ption	-2949
▁dire	-2950
▁susp	-2951
isters	-2952
▁games	-2953
▁beyond	-2954
▁central	-2955
▁thinking	-2956
▁sometimes	-2957
▁programmes	-2958
▁institution	-2959
10	-2960
In	-2961
lin	-2962
hood	-2963
ille	-2964
▁Rus	-2965
▁sil	-2966
▁East	-2967
▁gone	-2968
action	-2969
▁oblig	-2970
▁secret	-2971
▁measure	-2972
▁objectives	-2973
▁Bh	-2974
▁Ms	-2975
▁vo	-2976
iers	-2977
▁reb	-2978
itude	-2979
▁item	-2980
▁lose	-2981
argest	-2982
▁front	-2983
▁illeg	-2984
hod	-2985
more	-2986
rial	-2987
uing	-2988
▁Who	-2989
▁tab	-2990
aging	-2991
based	-2992
owers	-2993
▁earn	-2994
eneral	-2995
▁doubt	-2996
▁events	-2997
▁October	-2998
▁leading	-2999
▁perhaps	-3000
▁material	-3001
▁minister	-3002
▁solidarity	-3003
9.	-3004
ani	-3005
ped	-3006
uty	-3007
amed	-3008
▁eye	-3009
▁mus	-3010
asion	-3011
erson	-3012
▁pred	-3013
▁ways	-3014
▁blood	-3015
▁gives	-3016
▁views	-3017
▁levels	-3018
▁consequ	-3019
▁growing	-3020
▁systems	-3021
▁Amendment	-3022
▁September	-3023
▁treatment	-3024
▁24	-3025
▁Ir	-3026
▁Me	-3027
▁sy	-3028
akes	-3029
eria	-3030
itch	-3031
rote	-3032
▁City	-3033
▁doll	-3034
▁surv	-3035
encies	-3036
▁crime	-3037
▁rates	-3038
▁couple	-3039
▁express	-3040
▁perfect	-3041
▁reflect	-3042
▁Secondly	-3043
▁released	-3044
7.	-3045
▁UN	-3046
▁Ur	-3047
▁Tal	-3048
▁emb	-3049
itial	-3050
▁eyes	-3051
▁fine	-3052
▁grant	-3053
▁Greece	-3054
▁failed	-3055
▁conclud	-3056
▁figures	-3057
▁parents	-3058
▁interview	-3059
▁activities	-3060
▁agreements	-3061
▁principles	-3062
gic	-3063
ocks	-3064
omen	-3065
overy	-3066
▁High	-3067
▁norm	-3068
▁pick	-3069
▁wide	-3070
change	-3071
ercial	-3072
▁Those	-3073
▁emphas	-3074
▁income	-3075
▁wonder	-3076
▁Another	-3077
▁prepared	-3078
ken	-3079
▁Dr	-3080
ests	-3081
ogle	-3082
▁dog	-3083
▁mid	-3084
agues	-3085
oming	-3086
▁fast	-3087
▁host	-3088
▁laws	-3089
▁walk	-3090
terday	-3091
▁wrote	-3092
fficient	-3093
▁Austral	-3094
▁changed	-3095
▁natural	-3096
▁unemploy	-3097
▁Ke	-3098
chan	-3099
ores	-3100
vere	-3101
▁Musl	-3102
▁note	-3103
▁charg	-3104
▁equal	-3105
▁prison	-3106
▁balance	-3107
▁biggest	-3108
▁contact	-3109
▁hundred	-3110
▁challenge	-3111
▁enlargement	-3112
ma	-3113
na	-3114
ari	-3115
avy	-3116
wide	-3117
ients	-3118
▁July	-3119
▁Calif	-3120
▁avoid	-3121
▁waste	-3122
▁concer	-3123
▁online	-3124
▁running	-3125
▁document	-3126
▁knowledge	-3127
▁agricultural	-3128
ese	-3129
rab	-3130
vant	-3131
rehen	-3132
▁extra	-3133
▁minor	-3134
▁raise	-3135
▁Social	-3136
▁closed	-3137
▁subsid	-3138
▁turned	-3139
▁voting	-3140
▁charact	-3141
▁Convention	-3142
▁conference	-3143
▁App	-3144
▁mag	-3145
▁exam	-3146
▁draft	-3147
▁Google	-3148
▁speech	-3149
▁reading	-3150
▁affected	-3151
▁existing	-3152
▁movement	-3153
▁direction	-3154
▁absolutely	-3155
▁successful	-3156
rs	-3157
▁̧	-3158
equ	-3159
rap	-3160
ideo	-3161
urch	-3162
▁Over	-3163
▁rose	-3164
▁Since	-3165
▁spent	-3166
▁mechan	-3167
▁allowed	-3168
▁challenges	-3169
▁independent	-3170
SA	-3171
bn	-3172
let	-3173
mark	-3174
then	-3175
▁2006	-3176
▁Take	-3177
▁Labour	-3178
▁giving	-3179
▁method	-3180
▁package	-3181
▁arrested	-3182
If	-3183
ha	-3184
▁2.	-3185
ales	-3186
▁Sup	-3187
ively	-3188
▁doct	-3189
cement	-3190
▁Spain	-3191
▁apply	-3192
▁brief	-3193
▁space	-3194
ization	-3195
▁choice	-3196
▁carried	-3197
stitution	-3198
▁requires	-3199
▁immediately	-3200
But	-3201
vent	-3202
▁Rob	-3203
▁Sim	-3204
▁Yet	-3205
arily	-3206
▁Good	-3207
▁door	-3208
estern	-3209
▁Party	-3210
▁enter	-3211
▁satis	-3212
appoint	-3213
imately	-3214
▁agency	-3215
▁collect	-3216
▁finally	-3217
dra	-3218
▁27	-3219
▁TV	-3220
just	-3221
rees	-3222
▁Toy	-3223
▁aud	-3224
▁hur	-3225
▁son	-3226
▁wit	-3227
▁date	-3228
▁kept	-3229
▁eight	-3230
▁medic	-3231
ological	-3232
▁largest	-3233
▁remember	-3234
▁integration	-3235
▁investigation	-3236
▁opportunities	-3237
ya	-3238
▁&	-3239
ien	-3240
▁Par	-3241
▁Ser	-3242
▁rat	-3243
▁san	-3244
aries	-3245
rated	-3246
▁Only	-3247
▁cele	-3248
▁Allah	-3249
▁earth	-3250
▁worse	-3251
▁appeal	-3252
▁caused	-3253
▁average	-3254
▁written	-3255
▁criminal	-3256
▁completely	-3257
▁198	-3258
▁ele	-3259
▁ign	-3260
ufact	-3261
▁task	-3262
rences	-3263
▁defic	-3264
▁although	-3265
▁includes	-3266
▁guarantee	-3267
▁thousands	-3268
▁commercial	-3269
NN	-3270
ils	-3271
▁GM	-3272
ford	-3273
▁Des	-3274
▁swe	-3275
ounds	-3276
▁King	-3277
▁cohe	-3278
▁fool	-3279
▁town	-3280
▁reven	-3281
ination	-3282
theless	-3283
▁highly	-3284
▁please	-3285
▁strugg	-3286
isations	-3287
▁created	-3288
▁pleased	-3289
▁schools	-3290
▁Americans	-3291
▁technical	-3292
▁opposition	-3293
▁strengthen	-3294
8.	-3295
An	-3296
urg	-3297
ilit	-3298
ills	-3299
rick	-3300
▁Yes	-3301
▁deg	-3302
aches	-3303
▁prim	-3304
▁save	-3305
▁star	-3306
▁comput	-3307
▁exactly	-3308
▁involve	-3309
▁playing	-3310
▁politic	-3311
▁suspect	-3312
▁Although	-3313
▁colleagues	-3314
▁confidence	-3315
▁administration	-3316
yc	-3317
mad	-3318
anks	-3319
leep	-3320
▁Bet	-3321
▁Ste	-3322
estic	-3323
▁Both	-3324
▁gold	-3325
▁ship	-3326
▁match	-3327
▁ready	-3328
▁recon	-3329
▁steps	-3330
▁fourth	-3331
▁labour	-3332
▁simple	-3333
▁supply	-3334
▁initial	-3335
▁justice	-3336
▁difference	-3337
1,	-3338
▁ir	-3339
enty	-3340
ster	-3341
▁Are	-3342
▁Far	-3343
▁hous	-3344
▁chair	-3345
▁floor	-3346
▁circum	-3347
▁fisher	-3348
▁prepar	-3349
▁charges	-3350
▁constit	-3351
▁condition	-3352
▁developed	-3353
▁regarding	-3354
▁supported	-3355
▁throughout	-3356
pid	-3357
▁Ro	-3358
▁Sah	-3359
ading	-3360
iment	-3361
▁sens	-3362
▁Irish	-3363
ociated	-3364
▁member	-3365
▁modern	-3366
▁values	-3367
▁Further	-3368
▁counter	-3369
▁overall	-3370
▁straight	-3371
▁Republican	-3372
▁profession	-3373
rec	-3374
down	-3375
orks	-3376
▁Che	-3377
anish	-3378
▁Swed	-3379
▁Urdu	-3380
▁gets	-3381
▁sort	-3382
▁tack	-3383
▁wasn	-3384
urning	-3385
▁latest	-3386
▁profit	-3387
▁showed	-3388
▁attacks	-3389
▁promote	-3390
▁discussed	-3391
▁performance	-3392
bo	-3393
ek	-3394
ada	-3395
add	-3396
ser	-3397
▁1,	-3398
imum	-3399
▁Kar	-3400
▁enj	-3401
▁Here	-3402
▁Jack	-3403
▁Such	-3404
▁flex	-3405
▁warn	-3406
▁weap	-3407
▁webs	-3408
ilater	-3409
▁condem	-3410
▁helped	-3411
▁search	-3412
▁Article	-3413
▁compared	-3414
▁recovery	-3415
▁dangerous	-3416
▁additional	-3417
ald	-3418
dom	-3419
ole	-3420
raz	-3421
▁28	-3422
▁bi	-3423
osed	-3424
vert	-3425
▁Air	-3426
▁pie	-3427
▁uns	-3428
urder	-3429
▁Gold	-3430
▁Well	-3431
▁base	-3432
▁nine	-3433
▁purs	-3434
▁rout	-3435
▁soft	-3436
▁Inter	-3437
▁Michael	-3438
▁William	-3439
▁instead	-3440
▁activity	-3441
▁disappoint	-3442
▁operations	-3443
▁communication	-3444
SE	-3445
iff	-3446
▁Em	-3447
like	-3448
lled	-3449
▁000	-3450
▁Dep	-3451
▁San	-3452
lands	-3453
▁cuts	-3454
▁Green	-3455
▁Roman	-3456
▁farmers	-3457
▁accepted	-3458
▁incident	-3459
▁manufact	-3460
▁encourage	-3461
▁stability	-3462
▁requirements	-3463
BS	-3464
gar	-3465
ols	-3466
ray	-3467
yed	-3468
ites	-3469
▁Cap	-3470
aking	-3471
while	-3472
▁Make	-3473
▁Mart	-3474
iction	-3475
▁While	-3476
▁topic	-3477
▁border	-3478
▁proceed	-3479
▁Californ	-3480
▁complain	-3481
▁negative	-3482
▁University	-3483
▁concerning	-3484
▁industrial	-3485
▁priorities	-3486
▁statements	-3487
▁legislative	-3488
▁FT	-3489
irth	-3490
vest	-3491
▁felt	-3492
▁guid	-3493
▁race	-3494
▁clean	-3495
▁table	-3496
▁vital	-3497
▁histor	-3498
▁Firstly	-3499
▁animals	-3500
▁federal	-3501
▁illegal	-3502
▁putting	-3503
▁continued	-3504
▁Republicans	-3505
▁established	-3506
▁immigration	-3507
▁constitution	-3508
4,	-3509
imb	-3510
▁Im	-3511
aces	-3512
aded	-3513
▁Inc	-3514
▁Mer	-3515
▁blo	-3516
▁tit	-3517
▁tro	-3518
aught	-3519
verse	-3520
▁Cont	-3521
▁exer	-3522
▁phot	-3523
ternal	-3524
▁basic	-3525
▁beaut	-3526
▁coach	-3527
▁model	-3528
▁serve	-3529
▁Toyota	-3530
▁altern	-3531
▁confir	-3532
▁facing	-3533
▁stress	-3534
▁African	-3535
▁defence	-3536
▁Congress	-3537
▁starting	-3538
▁discrimin	-3539
▁yesterday	-3540
▁assistance	-3541
▁procedures	-3542
▁partnership	-3543
▁sustainable	-3544
▁contribution	-3545
▁Unfortunately	-3546
Ps	-3547
▁$2	-3548
▁Su	-3549
▁Tw	-3550
▁Uk	-3551
ateg	-3552
rely	-3553
sels	-3554
ysis	-3555
▁ack	-3556
▁squ	-3557
▁unf	-3558
acity	-3559
oking	-3560
▁Most	-3561
▁Rich	-3562
▁pret	-3563
▁General	-3564
▁culture	-3565
▁despite	-3566
▁missing	-3567
▁definite	-3568
▁character	-3569
▁initiatives	-3570
▁regulations	-3571
▁organisations	-3572
):	-3573
ky	-3574
ode	-3575
pro	-3576
▁26	-3577
book	-3578
▁Out	-3579
▁hus	-3580
▁pun	-3581
▁ren	-3582
▁sea	-3583
▁ult	-3584
estin	-3585
▁cash	-3586
▁Quest	-3587
▁delay	-3588
▁renew	-3589
▁acknow	-3590
▁remark	-3591
▁signed	-3592
▁calling	-3593
▁charged	-3594
▁conduct	-3595
▁effects	-3596
▁failure	-3597
▁purpose	-3598
▁release	-3599
▁trading	-3600
▁conflict	-3601
▁politics	-3602
▁committed	-3603
▁expressed	-3604
▁z	-3605
kes	-3606
▁NA	-3607
aily	-3608
wood	-3609
▁Tra	-3610
▁Web	-3611
▁esc	-3612
▁hol	-3613
▁isn	-3614
illed	-3615
pping	-3616
▁Ukra	-3617
▁beat	-3618
▁fort	-3619
▁teac	-3620
▁warm	-3621
▁spoke	-3622
▁surve	-3623
▁worst	-3624
ruption	-3625
▁advant	-3626
▁offers	-3627
▁summit	-3628
▁complex	-3629
▁journal	-3630
▁medical	-3631
▁opening	-3632
▁regards	-3633
▁monitoring	-3634
-2	-3635
▁22	-3636
cause	-3637
iring	-3638
▁rail	-3639
rative	-3640
▁drink	-3641
▁sides	-3642
▁works	-3643
olution	-3644
▁damage	-3645
ociation	-3646
▁Security	-3647
▁families	-3648
▁California	-3649
▁unemployment	-3650
la	-3651
▁EC	-3652
iban	-3653
ware	-3654
ensus	-3655
ureau	-3656
▁bomb	-3657
▁club	-3658
▁knew	-3659
▁mill	-3660
▁green	-3661
▁looks	-3662
▁voice	-3663
▁white	-3664
pective	-3665
▁forced	-3666
▁source	-3667
▁thanks	-3668
▁Russian	-3669
▁numbers	-3670
▁director	-3671
▁seriously	-3672
▁contributed	-3673
▁effectively	-3674
de	-3675
mar	-3676
ria	-3677
▁60	-3678
▁Bo	-3679
▁Ma	-3680
▁Mu	-3681
▁PM	-3682
▁Ber	-3683
▁Red	-3684
▁wat	-3685
odies	-3686
▁ended	-3687
▁parts	-3688
▁shoot	-3689
orthern	-3690
outhern	-3691
▁annual	-3692
▁claims	-3693
▁extent	-3694
▁looked	-3695
▁weekend	-3696
▁circumst	-3697
▁candidate	-3698
▁emissions	-3699
▁Conference	-3700
▁consequences	-3701
IT	-3702
▁sn	-3703
raft	-3704
▁Bur	-3705
▁Ham	-3706
ishes	-3707
▁Arab	-3708
▁Look	-3709
▁eval	-3710
▁sell	-3711
orders	-3712
▁Press	-3713
▁Rober	-3714
▁moved	-3715
▁speed	-3716
▁depend	-3717
▁honest	-3718
▁insist	-3719
▁player	-3720
▁shares	-3721
ilateral	-3722
▁disease	-3723
▁mission	-3724
▁sources	-3725
▁improved	-3726
▁customers	-3727
▁presidency	-3728
',	-3729
ara	-3730
arc	-3731
▁(1	-3732
ming	-3733
rast	-3734
▁los	-3735
using	-3736
▁Ange	-3737
▁acqu	-3738
▁phys	-3739
▁reve	-3740
▁runs	-3741
▁Count	-3742
▁block	-3743
▁range	-3744
▁asking	-3745
▁scored	-3746
▁senior	-3747
standing	-3748
▁Develop	-3749
▁function	-3750
▁provides	-3751
▁vehicles	-3752
▁described	-3753
▁presented	-3754
▁solutions	-3755
▁competitive	-3756
▁circumstances	-3757
ME	-3758
ags	-3759
cks	-3760
lymp	-3761
orry	-3762
▁Act	-3763
▁dom	-3764
▁lay	-3765
▁send	-3766
▁spir	-3767
atever	-3768
respon	-3769
▁Under	-3770
▁champ	-3771
▁fraud	-3772
▁judge	-3773
▁Health	-3774
▁closer	-3775
▁moving	-3776
▁murder	-3777
▁refuge	-3778
▁regret	-3779
▁settle	-3780
▁status	-3781
▁Taliban	-3782
▁consist	-3783
▁distrib	-3784
▁husband	-3785
▁exchange	-3786
▁separate	-3787
▁application	-3788
9,	-3789
ipe	-3790
▁197	-3791
▁pra	-3792
right	-3793
▁alle	-3794
▁refe	-3795
▁thus	-3796
ounded	-3797
▁limit	-3798
ourable	-3799
▁double	-3800
▁figure	-3801
▁Because	-3802
▁receive	-3803
▁published	-3804
▁connection	-3805
?"	-3806
IN	-3807
ki	-3808
amb	-3809
yle	-3810
iful	-3811
semb	-3812
▁Cup	-3813
▁Hol	-3814
▁Fore	-3815
▁Your	-3816
▁forg	-3817
▁wise	-3818
ourage	-3819
▁James	-3820
▁Olymp	-3821
▁Their	-3822
▁ideas	-3823
ologies	-3824
▁fellow	-3825
▁applied	-3826
▁aspects	-3827
▁details	-3828
▁evening	-3829
▁managed	-3830
▁weather	-3831
▁willing	-3832
▁football	-3833
▁substant	-3834
▁executive	-3835
▁provisions	-3836
▁parliamentary	-3837
CE	-3838
Wh	-3839
▁/	-3840
arp	-3841
ipl	-3842
▁La	-3843
exic	-3844
sive	-3845
ellig	-3846
gency	-3847
iling	-3848
rying	-3849
▁Serv	-3850
istics	-3851
▁About	-3852
▁estim	-3853
▁Indeed	-3854
▁charge	-3855
▁finance	-3856
▁disaster	-3857
▁sanctions	-3858
▁2,	-3859
alls	-3860
▁Ben	-3861
▁Mal	-3862
▁Sum	-3863
▁dro	-3864
▁eat	-3865
▁gun	-3866
▁via	-3867
▁Paul	-3868
▁join	-3869
▁Mexic	-3870
▁belie	-3871
▁dream	-3872
▁risks	-3873
▁stock	-3874
▁video	-3875
▁votes	-3876
▁During	-3877
▁offered	-3878
▁pension	-3879
▁criteria	-3880
▁daughter	-3881
▁directly	-3882
▁fighting	-3883
▁followed	-3884
//	-3885
5,	-3886
://	-3887
igr	-3888
olf	-3889
▁ME	-3890
▁hy	-3891
uled	-3892
▁Ash	-3893
▁Sub	-3894
▁typ	-3895
iency	-3896
▁Phil	-3897
▁cars	-3898
▁dism	-3899
▁qual	-3900
▁unac	-3901
coming	-3902
▁Times	-3903
▁rapid	-3904
▁shown	-3905
▁write	-3906
itarian	-3907
▁active	-3908
▁letter	-3909
▁wealth	-3910
▁accused	-3911
▁applies	-3912
▁hearing	-3913
▁limited	-3914
▁Moreover	-3915
▁Palestin	-3916
▁cultural	-3917
▁produced	-3918
▁comprehen	-3919
▁discussions	-3920
▁politicians	-3921
▁increasingly	-3922
.'	-3923
oo	-3924
het	-3925
itz	-3926
ona	-3927
resh	-3928
ston	-3929
▁Tex	-3930
▁htt	-3931
▁mem	-3932
▁mut	-3933
works	-3934
▁Bhai	-3935
▁gain	-3936
▁type	-3937
▁Agree	-3938
▁Great	-3939
▁flood	-3940
▁goods	-3941
▁touch	-3942
▁Indian	-3943
▁brings	-3944
▁cancer	-3945
▁defend	-3946
▁destro	-3947
▁powers	-3948
▁pretty	-3949
rastruct	-3950
▁Conserv	-3951
▁Justice	-3952
▁Nations	-3953
▁fishing	-3954
▁precise	-3955
▁critical	-3956
▁property	-3957
▁documents	-3958
▁insurance	-3959
▁operation	-3960
▁assessment	-3961
Re	-3962
mon	-3963
▁ut	-3964
ault	-3965
iant	-3966
▁Any	-3967
▁McC	-3968
▁ang	-3969
▁lif	-3970
▁clar	-3971
▁snow	-3972
▁drive	-3973
▁goals	-3974
▁meant	-3975
▁stake	-3976
▁career	-3977
▁forget	-3978
▁opened	-3979
▁regime	-3980
▁summer	-3981
▁voters	-3982
▁council	-3983
▁reforms	-3984
▁version	-3985
▁competit	-3986
▁restrict	-3987
▁speaking	-3988
▁yourself	-3989
▁definitely	-3990
▁considerable	-3991
edy	-3992
iny	-3993
yer	-3994
iled	-3995
▁Pri	-3996
▁Tom	-3997
▁die	-3998
field	-3999
▁Prot	-4000
▁cold	-4001
▁wait	-4002
▁2008.	-4003
▁2009.	-4004
▁Trans	-4005
▁drugs	-4006
▁tried	-4007
itation	-4008
▁Econom	-4009
▁bodies	-4010
▁curren	-4011
▁weight	-4012
▁victory	-4013
▁capacity	-4014
▁patients	-4015
▁happening	-4016
▁leadership	-4017
▁infrastruct	-4018
TMs	-4019
hib	-4020
rep	-4021
aves	-4022
▁Hum	-4023
▁god	-4024
lines	-4025
▁bear	-4026
▁duty	-4027
▁hour	-4028
▁none	-4029
▁shop	-4030
▁virt	-4031
ashion	-4032
▁built	-4033
▁check	-4034
▁react	-4035
▁League	-4036
▁announ	-4037
▁spread	-4038
▁liberal	-4039
▁outcome	-4040
▁popular	-4041
▁setting	-4042
▁withdra	-4043
▁determin	-4044
sibilities	-4045
▁Australia	-4046
▁confirmed	-4047
▁criticism	-4048
%.	-4049
▁X	-4050
ike	-4051
oes	-4052
▁Ah	-4053
▁Gl	-4054
etro	-4055
reas	-4056
▁196	-4057
▁Aff	-4058
▁Mic	-4059
▁Spe	-4060
▁eth	-4061
antic	-4062
inced	-4063
uries	-4064
▁Char	-4065
▁http	-4066
▁lies	-4067
Office	-4068
▁Sahib	-4069
▁heavy	-4070
▁lines	-4071
▁sleep	-4072
mission	-4073
porting	-4074
▁Portug	-4075
▁easier	-4076
▁launch	-4077
▁passed	-4078
▁secure	-4079
▁closely	-4080
▁deliver	-4081
▁returned	-4082
▁investors	-4083
▁religious	-4084
▁Democratic	-4085
▁Furthermore	-4086
ked	-4087
set	-4088
▁iP	-4089
▁Day	-4090
▁dig	-4091
▁tim	-4092
ayers	-4093
▁crow	-4094
asters	-4095
▁Korea	-4096
▁fault	-4097
▁newsp	-4098
▁sched	-4099
▁decide	-4100
▁attract	-4101
▁contain	-4102
▁experts	-4103
▁happens	-4104
▁largely	-4105
▁related	-4106
▁approved	-4107
▁officers	-4108
▁rejected	-4109
▁relation	-4110
▁remained	-4111
▁commission	-4112
▁conclusions	-4113
▁Constitution	-4114
▁Nevertheless	-4115
DA	-4116
▁3.	-4117
▁El	-4118
▁Ev	-4119
That	-4120
idge	-4121
ixed	-4122
part	-4123
ruit	-4124
▁Its	-4125
▁Jer	-4126
▁vac	-4127
inson	-4128
ional	-4129
oring	-4130
▁Once	-4131
▁burd	-4132
▁prec	-4133
icking	-4134
▁birth	-4135
▁phone	-4136
▁pleas	-4137
▁scope	-4138
▁inside	-4139
▁remind	-4140
▁decades	-4141
▁manager	-4142
▁witness	-4143
▁apparent	-4144
▁constant	-4145
▁creation	-4146
▁prospect	-4147
▁unaccept	-4148
▁influence	-4149
▁television	-4150
▁Development	-4151
”.	-4152
emy	-4153
rian	-4154
▁Law	-4155
▁fat	-4156
▁fre	-4157
▁lie	-4158
▁Four	-4159
▁Post	-4160
▁bott	-4161
▁resc	-4162
▁rich	-4163
engers	-4164
▁Third	-4165
▁abuse	-4166
▁below	-4167
▁music	-4168
▁plant	-4169
▁rural	-4170
▁trend	-4171
▁Middle	-4172
▁Street	-4173
▁explos	-4174
▁normal	-4175
▁Despite	-4176
▁Ukraine	-4177
▁neither	-4178
▁picture	-4179
▁entirely	-4180
▁occasion	-4181
▁Directive	-4182
▁convinced	-4183
▁represents	-4184
▁scientific	-4185
▁unacceptable	-4186
3,	-4187
AN	-4188
apt	-4189
bit	-4190
udd	-4191
ych	-4192
ilty	-4193
mine	-4194
ping	-4195
▁Aug	-4196
▁Scot	-4197
▁imag	-4198
ancing	-4199
atures	-4200
▁Offic	-4201
▁harmon	-4202
▁motion	-4203
▁satisf	-4204
▁ability	-4205
▁borders	-4206
▁dealing	-4207
▁explain	-4208
▁waiting	-4209
▁weapons	-4210
▁intellig	-4211
▁practical	-4212
▁impossible	-4213
40	-4214
gen	-4215
▁4.	-4216
▁NY	-4217
▁kn	-4218
bour	-4219
room	-4220
▁Dis	-4221
▁Sol	-4222
iplom	-4223
itter	-4224
night	-4225
range	-4226
▁Sing	-4227
▁defe	-4228
▁feet	-4229
▁kids	-4230
▁quot	-4231
▁Texas	-4232
▁faith	-4233
▁legit	-4234
▁Office	-4235
▁exclus	-4236
▁obtain	-4237
▁scheme	-4238
▁troops	-4239
▁welcom	-4240
imension	-4241
▁concept	-4242
▁seeking	-4243
▁becoming	-4244
▁designed	-4245
▁electric	-4246
▁launched	-4247
▁Agreement	-4248
▁implemented	-4249
EC	-4250
ams	-4251
bed	-4252
aled	-4253
cont	-4254
uals	-4255
▁Val	-4256
▁box	-4257
▁fif	-4258
▁suc	-4259
▁Like	-4260
▁cove	-4261
▁path	-4262
▁whom	-4263
▁mouth	-4264
▁simpl	-4265
▁Agency	-4266
▁Secret	-4267
▁expand	-4268
▁tabled	-4269
atically	-4270
▁appears	-4271
▁injured	-4272
▁produce	-4273
▁succeed	-4274
▁original	-4275
▁relative	-4276
▁strength	-4277
▁scheduled	-4278
▁Department	-4279
▁introduced	-4280
▁sufficient	-4281
ES	-4282
PL	-4283
ida	-4284
onn	-4285
▁Op	-4286
care	-4287
iate	-4288
olic	-4289
▁CNN	-4290
▁Cle	-4291
▁Nor	-4292
▁bab	-4293
▁sun	-4294
lease	-4295
▁Face	-4296
▁cell	-4297
▁meat	-4298
arning	-4299
elines	-4300
▁Camer	-4301
▁autom	-4302
▁categ	-4303
▁enjoy	-4304
▁occur	-4305
uations	-4306
▁combat	-4307
▁medium	-4308
▁undert	-4309
▁English	-4310
▁confirm	-4311
▁deficit	-4312
▁repeated	-4313
▁emergency	-4314
▁employees	-4315
▁obviously	-4316
ique	-4317
roso	-4318
▁log	-4319
ronic	-4320
▁Hung	-4321
▁coal	-4322
▁fuel	-4323
▁mand	-4324
▁obst	-4325
▁trib	-4326
▁Black	-4327
▁prime	-4328
▁purch	-4329
▁title	-4330
▁twice	-4331
▁George	-4332
▁afford	-4333
▁interp	-4334
▁prosec	-4335
▁seeing	-4336
▁seemed	-4337
▁territ	-4338
▁Israeli	-4339
▁Perhaps	-4340
▁Without	-4341
▁century	-4342
▁driving	-4343
▁killing	-4344
▁website	-4345
▁Question	-4346
▁analysis	-4347
▁cohesion	-4348
▁domestic	-4349
▁completed	-4350
▁continues	-4351
▁innovation	-4352
fin	-4353
ugh	-4354
▁Po	-4355
▁ge	-4356
ails	-4357
rete	-4358
▁Cur	-4359
▁Rel	-4360
▁Ter	-4361
▁cop	-4362
▁nar	-4363
going	-4364
inger	-4365
ivity	-4366
▁Love	-4367
▁feed	-4368
▁mort	-4369
▁spot	-4370
ifying	-4371
illing	-4372
▁Greek	-4373
▁Smith	-4374
▁occup	-4375
▁prove	-4376
▁taxes	-4377
Eastern	-4378
▁Muslim	-4379
▁Rights	-4380
▁aftern	-4381
▁degree	-4382
▁engine	-4383
▁rising	-4384
▁slight	-4385
▁strict	-4386
▁enterpr	-4387
▁stopped	-4388
▁appeared	-4389
▁computer	-4390
▁external	-4391
▁greatest	-4392
government	-4393
▁strategic	-4394
▁instrument	-4395
▁possibility	-4396
▁administrative	-4397
Ch	-4398
che	-4399
ere	-4400
www	-4401
appe	-4402
iger	-4403
quir	-4404
▁Pre	-4405
▁pan	-4406
etary	-4407
inton	-4408
nergy	-4409
▁Alex	-4410
▁Time	-4411
▁born	-4412
▁shut	-4413
▁urge	-4414
makers	-4415
overed	-4416
▁advoc	-4417
▁aimed	-4418
▁behav	-4419
▁domin	-4420
▁enfor	-4421
▁enorm	-4422
▁paper	-4423
▁spend	-4424
▁August	-4425
▁Author	-4426
▁apprec	-4427
▁belong	-4428
▁injury	-4429
▁becomes	-4430
▁concent	-4431
▁declined	-4432
▁millions	-4433
▁relevant	-4434
▁operating	-4435
▁comprehensive	-4436
ER	-4437
no	-4438
nel	-4439
gypt	-4440
orse	-4441
▁Bal	-4442
▁Nov	-4443
▁sad	-4444
erves	-4445
▁drop	-4446
▁prem	-4447
ussels	-4448
▁Italy	-4449
▁Scott	-4450
▁homes	-4451
▁Invest	-4452
▁Martin	-4453
▁guilty	-4454
▁Central	-4455
▁analyst	-4456
▁highest	-4457
▁meaning	-4458
▁mistake	-4459
▁planned	-4460
▁sitting	-4461
▁agencies	-4462
▁creating	-4463
▁elements	-4464
▁transfer	-4465
▁accession	-4466
▁reporting	-4467
▁conclusion	-4468
▁expectations	-4469
gin	-4470
ple	-4471
zed	-4472
▁Lu	-4473
▁Mo	-4474
oods	-4475
▁Mil	-4476
▁Put	-4477
▁fit	-4478
▁upd	-4479
astic	-4480
icted	-4481
iture	-4482
▁Show	-4483
▁capt	-4484
▁chem	-4485
▁jump	-4486
▁rein	-4487
ancial	-4488
▁Liber	-4489
▁incor	-4490
▁north	-4491
▁noted	-4492
▁obser	-4493
▁throw	-4494
▁Before	-4495
▁animal	-4496
▁denied	-4497
▁spring	-4498
▁partner	-4499
▁treated	-4500
▁concrete	-4501
▁currency	-4502
▁soldiers	-4503
▁standard	-4504
▁suffered	-4505
▁advantage	-4506
▁exception	-4507
▁controvers	-4508
▁agriculture	-4509
▁instruments	-4510
▁coordination	-4511
▁understanding	-4512
▁infrastructure	-4513
arr	-4514
ett	-4515
berg	-4516
▁Ali	-4517
▁Fed	-4518
▁sav	-4519
earch	-4520
▁2000	-4521
▁Asia	-4522
▁Step	-4523
▁arms	-4524
▁clot	-4525
▁poet	-4526
itable	-4527
▁boost	-4528
▁fresh	-4529
▁marri	-4530
▁movie	-4531
▁score	-4532
▁sorry	-4533
▁youth	-4534
entions	-4535
▁Better	-4536
▁battle	-4537
▁causes	-4538
▁excess	-4539
▁forest	-4540
▁screen	-4541
▁sexual	-4542
▁spirit	-4543
▁Cameron	-4544
▁Program	-4545
▁conserv	-4546
▁demands	-4547
▁station	-4548
▁chairman	-4549
▁exercise	-4550
▁finished	-4551
▁powerful	-4552
▁afternoon	-4553
▁suggested	-4554
5-	-4555
:0	-4556
ls	-4557
ker	-4558
▁Ba	-4559
emen	-4560
uine	-4561
▁Dub	-4562
ented	-4563
tered	-4564
▁Fort	-4565
▁bond	-4566
▁card	-4567
▁flat	-4568
▁fulf	-4569
▁Egypt	-4570
▁deleg	-4571
▁displ	-4572
▁explo	-4573
▁favor	-4574
▁radio	-4575
▁Poland	-4576
▁Affairs	-4577
▁alleged	-4578
▁genuine	-4579
▁replace	-4580
▁targets	-4581
▁totally	-4582
▁trouble	-4583
▁Brussels	-4584
▁believed	-4585
▁believes	-4586
▁efficient	-4587
▁fisheries	-4588
▁practices	-4589
▁contribute	-4590
▁substantial	-4591
▁specifically	-4592
▁discrimination	-4593
DP	-4594
My	-4595
OU	-4596
hi	-4597
ads	-4598
ago	-4599
cri	-4600
eff	-4601
ino	-4602
pir	-4603
ras	-4604
▁$3	-4605
▁80	-4606
▁Cy	-4607
▁Up	-4608
▁Los	-4609
▁bre	-4610
▁der	-4611
▁lic	-4612
inary	-4613
quake	-4614
▁Bill	-4615
▁Mill	-4616
▁Park	-4617
▁army	-4618
▁park	-4619
ateful	-4620
porate	-4621
ranean	-4622
▁adequ	-4623
▁forms	-4624
▁glass	-4625
▁maybe	-4626
▁sharp	-4627
▁teams	-4628
▁tests	-4629
▁tough	-4630
respond	-4631
▁Report	-4632
▁advice	-4633
▁caught	-4634
▁conver	-4635
▁desire	-4636
▁diplom	-4637
▁stated	-4638
▁Richard	-4639
▁Spanish	-4640
▁reduced	-4641
▁admitted	-4642
▁changing	-4643
▁hundreds	-4644
▁properly	-4645
iterranean	-4646
▁beautiful	-4647
▁neighbour	-4648
▁provision	-4649
▁efficiency	-4650
▁interesting	-4651
AS	-4652
zz	-4653
sey	-4654
abil	-4655
aked	-4656
cers	-4657
ocol	-4658
▁Den	-4659
▁bed	-4660
▁spl	-4661
amber	-4662
icial	-4663
▁Khan	-4664
▁evil	-4665
▁surr	-4666
porary	-4667
▁grand	-4668
▁broken	-4669
▁centre	-4670
▁cities	-4671
▁explan	-4672
▁factor	-4673
▁transl	-4674
▁unable	-4675
▁urgent	-4676
▁Angeles	-4677
▁courage	-4678
▁dollars	-4679
▁feeling	-4680
▁science	-4681
▁Scotland	-4682
▁Williams	-4683
▁strongly	-4684
▁acknowled	-4685
▁consensus	-4686
▁involving	-4687
▁corruption	-4688
▁guidelines	-4689
▁II	-4690
ancy	-4691
hand	-4692
uild	-4693
▁Bus	-4694
▁Slo	-4695
▁adm	-4696
▁fle	-4697
▁hom	-4698
▁ton	-4699
▁www	-4700
point	-4701
▁Keep	-4702
▁song	-4703
▁tend	-4704
ishing	-4705
sembly	-4706
▁Women	-4707
▁blind	-4708
▁index	-4709
▁optim	-4710
▁truly	-4711
▁Canada	-4712
▁Center	-4713
▁driver	-4714
▁linked	-4715
▁listen	-4716
▁posted	-4717
▁retail	-4718
▁Brother	-4719
▁Clinton	-4720
▁appoint	-4721
▁covered	-4722
▁disappe	-4723
▁propose	-4724
▁accounts	-4725
▁referred	-4726
▁sensitive	-4727
▁acceptable	-4728
▁passengers	-4729
▁professional	-4730
▁recommendations	-4731
FR	-4732
bl	-4733
coh	-4734
enh	-4735
gue	-4736
uan	-4737
uit	-4738
vis	-4739
▁Oh	-4740
iles	-4741
oked	-4742
▁Add	-4743
▁Moh	-4744
▁bul	-4745
▁enh	-4746
▁pus	-4747
gment	-4748
under	-4749
urers	-4750
▁Form	-4751
▁cast	-4752
▁milk	-4753
▁rock	-4754
ection	-4755
ulated	-4756
▁Organ	-4757
▁books	-4758
▁bound	-4759
▁daily	-4760
▁disch	-4761
▁signs	-4762
ructive	-4763
▁Energy	-4764
▁advert	-4765
▁compar	-4766
▁export	-4767
▁issued	-4768
▁useful	-4769
▁leaving	-4770
▁sectors	-4771
▁contains	-4772
▁pictures	-4773
▁relating	-4774
▁Europeans	-4775
▁immediate	-4776
▁ministers	-4777
▁providing	-4778
▁reporters	-4779
▁independence	-4780
▁institutional	-4781
AR	-4782
OR	-4783
And	-4784
asc	-4785
▁Ac	-4786
inet	-4787
sych	-4788
▁Bul	-4789
▁Del	-4790
▁Kos	-4791
▁Old	-4792
▁har	-4793
▁kid	-4794
enced	-4795
enger	-4796
razil	-4797
uters	-4798
▁Also	-4799
▁Wall	-4800
▁bird	-4801
▁jail	-4802
▁luck	-4803
elling	-4804
making	-4805
▁2010,	-4806
▁2010.	-4807
▁Jones	-4808
▁haven	-4809
▁sweet	-4810
▁track	-4811
▁traff	-4812
▁train	-4813
▁users	-4814
ounding	-4815
▁Robert	-4816
▁manner	-4817
▁strike	-4818
▁Islamic	-4819
▁compens	-4820
▁element	-4821
▁argument	-4822
▁enormous	-4823
▁planning	-4824
▁Secretary	-4825
▁intention	-4826
▁alternative	-4827
▁differences	-4828
ih	-4829
ny	-4830
icks	-4831
isms	-4832
▁Lat	-4833
▁Sar	-4834
▁Set	-4835
▁cli	-4836
andon	-4837
house	-4838
irgin	-4839
sibly	-4840
usion	-4841
ville	-4842
▁Have	-4843
▁grad	-4844
anging	-4845
ieving	-4846
▁adult	-4847
▁alleg	-4848
▁award	-4849
essions	-4850
▁County	-4851
▁Mexico	-4852
▁School	-4853
▁easily	-4854
▁mainly	-4855
▁option	-4856
▁places	-4857
▁Instead	-4858
▁arrange	-4859
▁claimed	-4860
▁complic	-4861
▁elected	-4862
▁holding	-4863
▁officer	-4864
▁pointed	-4865
▁traffic	-4866
▁underst	-4867
sequently	-4868
▁contrary	-4869
▁grateful	-4870
▁stronger	-4871
▁whatever	-4872
▁withdraw	-4873
▁confident	-4874
▁dimension	-4875
▁reduction	-4876
▁expression	-4877
▁perspective	-4878
▁traditional	-4879
▁unfortunately	-4880
▁29	-4881
▁CE	-4882
▁Sy	-4883
alty	-4884
fare	-4885
shad	-4886
ties	-4887
ught	-4888
▁Cop	-4889
▁Mos	-4890
Times	-4891
ander	-4892
itors	-4893
riers	-4894
▁Cons	-4895
▁Flor	-4896
▁hair	-4897
▁marg	-4898
▁sets	-4899
agraph	-4900
called	-4901
itious	-4902
rendum	-4903
▁crowd	-4904
▁deals	-4905
▁south	-4906
▁union	-4907
▁Brazil	-4908
▁Strate	-4909
▁accord	-4910
▁bottom	-4911
▁celebr	-4912
▁church	-4913
▁missed	-4914
▁severe	-4915
▁street	-4916
▁Company	-4917
▁Foreign	-4918
▁Johnson	-4919
▁Nothing	-4920
▁answers	-4921
▁arrived	-4922
▁healthy	-4923
▁accident	-4924
▁attitude	-4925
▁southern	-4926
▁supposed	-4927
▁authority	-4928
▁positions	-4929
▁recognise	-4930
▁Associated	-4931
▁continuing	-4932
▁situations	-4933
▁improvement	-4934
▁humanitarian	-4935
11	-4936
7,	-4937
IS	-4938
oly	-4939
see	-4940
▁3-	-4941
▁5.	-4942
roat	-4943
▁Abd	-4944
▁Env	-4945
▁Fer	-4946
ental	-4947
essor	-4948
iance	-4949
ocked	-4950
▁Bush	-4951
▁Does	-4952
▁Year	-4953
▁acts	-4954
▁aims	-4955
▁vast	-4956
alling	-4957
angers	-4958
border	-4959
▁Apple	-4960
▁alloc	-4961
▁blame	-4962
▁brain	-4963
▁hopes	-4964
▁miles	-4965
▁motor	-4966
▁proud	-4967
▁assets	-4968
▁attend	-4969
▁choose	-4970
▁couldn	-4971
▁declar	-4972
▁limits	-4973
▁mobile	-4974
iliation	-4975
▁Western	-4976
▁finding	-4977
▁nations	-4978
▁opposed	-4979
▁protest	-4980
▁examples	-4981
▁forecast	-4982
▁Financial	-4983
▁addressed	-4984
▁budgetary	-4985
▁everybody	-4986
▁otherwise	-4987
▁promoting	-4988
▁reference	-4989
▁candidates	-4990
▁honourable	-4991
▁previously	-4992
▁commitments	-4993
▁transparent	-4994
▁competitiveness	-4995
6,	-4996
500	-4997
agn	-4998
ips	-4999
pet	-5000
▁70	-5001
alse	-5002
ylum	-5003
▁Get	-5004
▁Leg	-5005
▁boy	-5006
▁hun	-5007
▁unp	-5008
apers	-5009
iscal	-5010
reets	-5011
▁Saud	-5012
▁dark	-5013
▁dram	-5014
▁fans	-5015
▁pull	-5016
▁size	-5017
▁vill	-5018
▁2008,	-5019
▁broke	-5020
▁coast	-5021
▁filed	-5022
holders	-5023
portion	-5024
▁Please	-5025
▁Thanks	-5026
▁burden	-5027
▁bureau	-5028
▁except	-5029
▁middle	-5030
▁prefer	-5031
▁repeat	-5032
▁tackle	-5033
▁Italian	-5034
▁airport	-5035
▁delight	-5036
▁prepare	-5037
▁revenue	-5038
▁usually	-5039
formation	-5040
▁Facebook	-5041
▁balanced	-5042
▁learning	-5043
▁networks	-5044
▁introduce	-5045
▁organised	-5046
▁governance	-5047
▁referendum	-5048
▁individuals	-5049
▁consideration	-5050
▁participation	-5051
5%	-5052
ko	-5053
ala	-5054
urb	-5055
anda	-5056
eter	-5057
mail	-5058
▁$1.	-5059
▁Bow	-5060
▁Com	-5061
▁Jew	-5062
▁Lib	-5063
▁Sir	-5064
▁cab	-5065
▁fem	-5066
▁pul	-5067
idden	-5068
istry	-5069
lined	-5070
reens	-5071
▁Phot	-5072
▁guys	-5073
▁laid	-5074
▁push	-5075
aching	-5076
onents	-5077
▁Three	-5078
▁advis	-5079
▁fewer	-5080
▁forum	-5081
▁heads	-5082
▁Summit	-5083
▁expert	-5084
▁inquir	-5085
▁retain	-5086
▁Florida	-5087
▁helping	-5088
▁bringing	-5089
▁Pakistani	-5090
▁contracts	-5091
▁mechanism	-5092
▁newspaper	-5093
▁correspond	-5094
▁developments	-5095
60	-5096
OP	-5097
ka	-5098
ady	-5099
cle	-5100
pty	-5101
rey	-5102
aken	-5103
anim	-5104
ayer	-5105
utch	-5106
▁Hel	-5107
phone	-5108
utors	-5109
woman	-5110
▁Turk	-5111
▁nice	-5112
ground	-5113
▁blast	-5114
▁catch	-5115
▁consc	-5116
▁faced	-5117
▁falls	-5118
ography	-5119
▁Ladies	-5120
▁Public	-5121
▁Virgin	-5122
▁doctor	-5123
▁multip	-5124
▁obstac	-5125
▁proved	-5126
▁shared	-5127
▁thinks	-5128
▁facilit	-5129
▁factors	-5130
▁options	-5131
▁showing	-5132
▁streets	-5133
▁payments	-5134
▁supports	-5135
▁watching	-5136
▁ambitious	-5137
▁buildings	-5138
▁carefully	-5139
▁financing	-5140
▁improving	-5141
▁involvement	-5142
▁construction	-5143
▁difficulties	-5144
▁intelligence	-5145
▁representatives	-5146
8,	-5147
AC	-5148
cel	-5149
mas	-5150
▁31	-5151
Euro	-5152
▁Att	-5153
▁Sal	-5154
▁Sam	-5155
▁Win	-5156
▁scr	-5157
▁Long	-5158
▁Thom	-5159
▁bail	-5160
▁ends	-5161
▁hurt	-5162
▁tick	-5163
urally	-5164
▁Earth	-5165
▁Human	-5166
▁Somet	-5167
▁entry	-5168
▁fruit	-5169
▁horse	-5170
▁tight	-5171
▁corner	-5172
▁dispos	-5173
▁elimin	-5174
▁joined	-5175
▁treaty	-5176
▁Jackson	-5177
▁NYTimes	-5178
▁condemn	-5179
▁holiday	-5180
▁housing	-5181
▁primary	-5182
▁subsidi	-5183
▁controls	-5184
▁experien	-5185
▁intended	-5186
▁marriage	-5187
▁economies	-5188
▁terrorist	-5189
▁earthquake	-5190
▁Association	-5191
▁communities	-5192
▁consumption	-5193
▁flexibility	-5194
AT	-5195
ado	-5196
ovo	-5197
comm	-5198
gent	-5199
rack	-5200
iders	-5201
▁MEPs	-5202
▁arch	-5203
▁poem	-5204
▁poss	-5205
▁wine	-5206
assion	-5207
lected	-5208
▁crash	-5209
▁mount	-5210
▁named	-5211
▁ought	-5212
▁storm	-5213
▁allows	-5214
▁gender	-5215
▁merely	-5216
▁perman	-5217
▁signal	-5218
▁struck	-5219
▁vision	-5220
▁Twitter	-5221
▁affairs	-5222
▁defense	-5223
▁fashion	-5224
▁minimum	-5225
▁recover	-5226
▁refused	-5227
▁removed	-5228
▁researc	-5229
▁resolve	-5230
▁smaller	-5231
▁student	-5232
▁Everyone	-5233
▁chemical	-5234
▁detailed	-5235
▁minority	-5236
▁reaction	-5237
▁sentence	-5238
▁software	-5239
▁Christian	-5240
▁inflation	-5241
▁materials	-5242
▁producers	-5243
▁residents	-5244
▁supporting	-5245
▁Palestinian	-5246
!"	-5247
aq	-5248
icy	-5249
sen	-5250
ugg	-5251
▁90	-5252
▁Az	-5253
▁£1	-5254
/200	-5255
agen	-5256
arus	-5257
ials	-5258
igan	-5259
lick	-5260
▁Vol	-5261
▁row	-5262
craft	-5263
ordon	-5264
ulate	-5265
▁Belg	-5266
▁Dist	-5267
▁NATO	-5268
▁Sham	-5269
▁emot	-5270
▁rain	-5271
▁stim	-5272
▁tong	-5273
▁trip	-5274
ipment	-5275
▁alcoh	-5276
▁expos	-5277
▁forth	-5278
▁guard	-5279
▁hotel	-5280
▁piece	-5281
▁sites	-5282
▁terri	-5283
▁Market	-5284
▁enable	-5285
▁expend	-5286
▁losing	-5287
▁regist	-5288
▁stocks	-5289
eanwhile	-5290
▁Capital	-5291
▁article	-5292
▁briefly	-5293
▁dismiss	-5294
▁follows	-5295
▁winning	-5296
▁Economic	-5297
▁conclude	-5298
▁extended	-5299
▁informed	-5300
▁instance	-5301
▁presence	-5302
▁refugees	-5303
▁religion	-5304
▁achieving	-5305
▁discharge	-5306
▁precisely	-5307
▁Amendments	-5308
▁interested	-5309
▁relatively	-5310
▁ultimately	-5311
▁rapporteurs	-5312
▁announcement	-5313
▁introduction	-5314
▁contributions	-5315
▁recommendation	-5316
ait	-5317
lor	-5318
abor	-5319
aker	-5320
lete	-5321
ront	-5322
▁Cub	-5323
▁Dar	-5324
▁See	-5325
▁van	-5326
andal	-5327
icide	-5328
orney	-5329
uable	-5330
▁Lord	-5331
▁Miss	-5332
▁gard	-5333
▁soul	-5334
▁unit	-5335
▁2009,	-5336
▁Young	-5337
▁drawn	-5338
▁names	-5339
▁plays	-5340
igrants	-5341
▁master	-5342
▁owners	-5343
▁sports	-5344
▁stands	-5345
▁suffer	-5346
ublished	-5347
▁Belarus	-5348
▁advance	-5349
▁endorse	-5350
▁granted	-5351
▁obvious	-5352
▁prosper	-5353
▁telling	-5354
▁turning	-5355
▁univers	-5356
▁governor	-5357
▁shooting	-5358
▁generation	-5359
▁identified	-5360
▁considering	-5361
▁encouraging	-5362
▁enterprises	-5363
▁organisation	-5364
▁technologies	-5365
▁â	-5366
ING	-5367
wan	-5368
▁Gh	-5369
▁ec	-5370
enny	-5371
gery	-5372
irty	-5373
orne	-5374
▁500	-5375
▁glo	-5376
▁ran	-5377
acing	-5378
arger	-5379
otten	-5380
▁Anal	-5381
▁dogs	-5382
▁page	-5383
Europe	-5384
hester	-5385
▁false	-5386
▁laugh	-5387
▁plane	-5388
▁scene	-5389
▁shape	-5390
▁asylum	-5391
▁fiscal	-5392
▁safegu	-5393
▁victim	-5394
▁debates	-5395
▁entered	-5396
▁promise	-5397
▁regular	-5398
▁equality	-5399
▁findings	-5400
▁injuries	-5401
▁mistakes	-5402
▁slightly	-5403
▁Meanwhile	-5404
▁generally	-5405
▁uncertain	-5406
▁understood	-5407
▁Environment	-5408
▁distribution	-5409
",	-5410
80	-5411
sp	-5412
edd	-5413
eds	-5414
ein	-5415
hab	-5416
iar	-5417
oma	-5418
rid	-5419
roc	-5420
ses	-5421
umn	-5422
yan	-5423
▁AM	-5424
lder	-5425
raid	-5426
sman	-5427
ules	-5428
well	-5429
▁GMT	-5430
▁Ver	-5431
▁rob	-5432
aming	-5433
ijing	-5434
orial	-5435
▁2020	-5436
▁Stud	-5437
▁blow	-5438
▁flow	-5439
▁king	-5440
▁pled	-5441
▁puts	-5442
iences	-5443
inding	-5444
orough	-5445
▁Child	-5446
▁Georg	-5447
▁Money	-5448
▁disag	-5449
▁entit	-5450
▁faces	-5451
▁liter	-5452
▁quant	-5453
▁seats	-5454
▁Kosovo	-5455
▁equity	-5456
▁mutual	-5457
▁placed	-5458
▁recall	-5459
▁resist	-5460
▁unanim	-5461
▁unless	-5462
▁wishes	-5463
▁Beijing	-5464
▁Romania	-5465
▁Service	-5466
▁defined	-5467
▁dropped	-5468
▁operate	-5469
▁adoption	-5470
▁meetings	-5471
▁promised	-5472
▁Programme	-5473
▁consistent	-5474
No	-5475
ami	-5476
unk	-5477
▁Jo	-5478
When	-5479
ethe	-5480
oles	-5481
▁Alp	-5482
▁Ann	-5483
▁Big	-5484
▁Gul	-5485
▁SME	-5486
▁Tim	-5487
▁lob	-5488
▁vul	-5489
board	-5490
level	-5491
urely	-5492
▁Chic	-5493
▁Vice	-5494
▁abst	-5495
▁blue	-5496
▁dict	-5497
▁diss	-5498
▁rare	-5499
▁shad	-5500
▁Among	-5501
▁Asian	-5502
▁leads	-5503
▁older	-5504
▁store	-5505
▁adjust	-5506
▁incent	-5507
▁intend	-5508
▁observ	-5509
▁resign	-5510
▁stream	-5511
▁toward	-5512
▁wouldn	-5513
▁Olympic	-5514
▁Thirdly	-5515
▁bureauc	-5516
▁equally	-5517
▁learned	-5518
▁methods	-5519
▁tourism	-5520
▁Northern	-5521
▁Robinson	-5522
▁opposite	-5523
▁pleasure	-5524
▁colleague	-5525
▁naturally	-5526
▁evaluation	-5527
▁integrated	-5528
▁prevention	-5529
▁obligations	-5530
▁Mediterranean	-5531
▁establishment	-5532
ini	-5533
ola	-5534
▁IT	-5535
anch	-5536
cher	-5537
emic	-5538
inal	-5539
keep	-5540
zech	-5541
▁Mah	-5542
▁Mir	-5543
▁Mur	-5544
▁Sea	-5545
▁Sur	-5546
▁USA	-5547
▁gap	-5548
▁ice	-5549
ength	-5550
rates	-5551
▁Mass	-5552
▁Much	-5553
▁Writ	-5554
▁crew	-5555
▁east	-5556
▁sale	-5557
▁wall	-5558
lantic	-5559
▁Chief	-5560
▁assum	-5561
▁begun	-5562
▁cents	-5563
▁cheap	-5564
▁facts	-5565
▁posts	-5566
▁psych	-5567
▁reput	-5568
▁sport	-5569
▁stick	-5570
▁urged	-5571
▁Budget	-5572
▁Sweden	-5573
▁center	-5574
▁deeply	-5575
▁larger	-5576
▁notice	-5577
▁punish	-5578
▁rescue	-5579
chnology	-5580
ulations	-5581
▁Subject	-5582
▁abandon	-5583
▁doctors	-5584
▁drivers	-5585
▁massive	-5586
▁vehicle	-5587
▁Business	-5588
▁Portugal	-5589
▁audience	-5590
▁declared	-5591
▁diseases	-5592
▁identity	-5593
▁Christmas	-5594
▁broadcast	-5595
▁combating	-5596
▁equipment	-5597
▁interpret	-5598
▁structure	-5599
▁suffering	-5600
▁suspended	-5601
▁structural	-5602
governmental	-5603
ey	-5604
oz	-5605
‚¬	-5606
aur	-5607
bur	-5608
eal	-5609
emb	-5610
uct	-5611
▁CO	-5612
gies	-5613
iced	-5614
irms	-5615
iver	-5616
rant	-5617
▁Ang	-5618
▁Ari	-5619
▁Lit	-5620
▁Mat	-5621
▁Roy	-5622
▁bow	-5623
▁rig	-5624
▁shr	-5625
erous	-5626
sized	-5627
▁2002	-5628
▁Free	-5629
▁Life	-5630
▁blog	-5631
▁burn	-5632
▁dies	-5633
▁mine	-5634
▁pair	-5635
▁seat	-5636
▁sett	-5637
▁taxp	-5638
▁Polit	-5639
▁Treas	-5640
▁Yemen	-5641
▁angry	-5642
▁fifth	-5643
▁quake	-5644
▁smart	-5645
▁solve	-5646
▁Global	-5647
▁actual	-5648
▁borrow	-5649
▁flight	-5650
▁league	-5651
▁nobody	-5652
▁pulled	-5653
▁relief	-5654
▁reward	-5655
▁sought	-5656
▁traged	-5657
▁unfair	-5658
▁vulner	-5659
▁warned	-5660
▁Federal	-5661
▁collaps	-5662
▁rightly	-5663
▁savings	-5664
Reporting	-5665
▁Research	-5666
▁Strategy	-5667
▁Virginia	-5668
▁allowing	-5669
▁ensuring	-5670
▁reducing	-5671
▁Published	-5672
▁apparently	-5673
▁expenditure	-5674
▁journalists	-5675
▁researchers	-5676
▁resolutions	-5677
▁spokeswoman	-5678
▁implementing	-5679
45	-5680
:2	-5681
:3	-5682
▁+	-5683
▁x	-5684
She	-5685
aed	-5686
oms	-5687
put	-5688
rog	-5689
tar	-5690
ube	-5691
▁et	-5692
arsh	-5693
road	-5694
▁Did	-5695
▁GDP	-5696
▁Sus	-5697
▁Ten	-5698
▁bid	-5699
▁bur	-5700
▁cod	-5701
▁ded	-5702
▁doz	-5703
▁gri	-5704
▁hat	-5705
aling	-5706
aying	-5707
inner	-5708
itute	-5709
▁2011	-5710
▁Come	-5711
▁Manc	-5712
▁Work	-5713
▁baby	-5714
hammad	-5715
▁Czech	-5716
▁Stand	-5717
▁Still	-5718
▁bench	-5719
▁bless	-5720
▁fears	-5721
▁frequ	-5722
▁rough	-5723
▁sheep	-5724
▁stead	-5725
▁stone	-5726
related	-5727
▁afraid	-5728
▁begins	-5729
▁decade	-5730
▁lawyer	-5731
▁losses	-5732
▁minute	-5733
▁temper	-5734
▁thread	-5735
▁unlike	-5736
▁waters	-5737
▁Neither	-5738
▁Swedish	-5739
▁Turkish	-5740
▁college	-5741
▁dispute	-5742
▁selling	-5743
▁session	-5744
▁Muhammad	-5745
▁involves	-5746
▁teachers	-5747
▁welcomed	-5748
▁respected	-5749
▁surprised	-5750
▁healthcare	-5751
▁scientists	-5752
▁explanation	-5753
▁outstanding	-5754
▁participate	-5755
▁recognition	-5756
▁trafficking	-5757
▁acknowledged	-5758
▁intervention	-5759
Os	-5760
gn	-5761
▁(2	-5762
▁ep	-5763
apse	-5764
aven	-5765
reme	-5766
▁Mac	-5767
▁Nob	-5768
▁Sil	-5769
▁egg	-5770
▁pet	-5771
abled	-5772
ashed	-5773
uting	-5774
▁Vill	-5775
▁aren	-5776
▁busy	-5777
▁dust	-5778
▁isol	-5779
▁surf	-5780
friend	-5781
▁Chris	-5782
▁Trade	-5783
▁antic	-5784
▁brand	-5785
▁breat	-5786
▁camer	-5787
▁empty	-5788
▁girls	-5789
▁proof	-5790
▁spect	-5791
▁tells	-5792
▁yards	-5793
▁incomp	-5794
▁orders	-5795
▁served	-5796
▁stable	-5797
▁survey	-5798
etheless	-5799
▁capable	-5800
▁careful	-5801
▁contrad	-5802
▁feature	-5803
▁flights	-5804
▁keeping	-5805
▁mandate	-5806
▁married	-5807
▁patient	-5808
▁predict	-5809
▁profits	-5810
▁restric	-5811
▁scandal	-5812
ournament	-5813
▁Shamshad	-5814
▁emerging	-5815
▁suggests	-5816
▁targeted	-5817
▁recession	-5818
▁submitted	-5819
▁tradition	-5820
▁Regulation	-5821
▁investments	-5822
▁compensation	-5823
▁presidential	-5824
15	-5825
1‚	-5826
99	-5827
ais	-5828
gra	-5829
kel	-5830
oor	-5831
▁35	-5832
....	-5833
chen	-5834
omal	-5835
osen	-5836
unch	-5837
▁Gra	-5838
▁Mod	-5839
▁max	-5840
▁rid	-5841
▁sli	-5842
uated	-5843
ullah	-5844
▁2005	-5845
▁Army	-5846
▁Give	-5847
▁mach	-5848
▁murd	-5849
▁phil	-5850
▁scen	-5851
▁symb	-5852
▁Carol	-5853
▁Franc	-5854
▁Which	-5855
▁celeb	-5856
▁tools	-5857
▁trave	-5858
ionship	-5859
thening	-5860
viously	-5861
▁Follow	-5862
▁Former	-5863
▁Gordon	-5864
▁Nether	-5865
▁accomp	-5866
▁acquis	-5867
▁apolog	-5868
▁assume	-5869
▁fallen	-5870
▁finish	-5871
▁formal	-5872
▁prompt	-5873
▁tongue	-5874
▁Charter	-5875
▁Chicago	-5876
▁Kingdom	-5877
▁falling	-5878
▁inquiry	-5879
▁reinfor	-5880
▁coverage	-5881
▁identify	-5882
▁protected	-5883
▁determined	-5884
▁guarantees	-5885
▁electricity	-5886
▁proceedings	-5887
▁constitutional	-5888
--	-5889
-4	-5890
za	-5891
▁”	-5892
:30	-5893
ato	-5894
ici	-5895
inn	-5896
sea	-5897
What	-5898
ayed	-5899
uate	-5900
vote	-5901
▁Bos	-5902
▁CEO	-5903
▁Joe	-5904
▁Jud	-5905
▁Lee	-5906
▁Nos	-5907
▁Rod	-5908
▁fly	-5909
▁pit	-5910
▁sat	-5911
bourg	-5912
itals	-5913
produ	-5914
▁Shar	-5915
▁Turn	-5916
▁wins	-5917
▁Woods	-5918
▁chann	-5919
▁decis	-5920
▁innoc	-5921
▁lived	-5922
▁loans	-5923
▁behavi	-5924
▁dollar	-5925
▁exclud	-5926
▁gained	-5927
▁gather	-5928
▁houses	-5929
▁mostly	-5930
▁paying	-5931
▁ruling	-5932
European	-5933
▁Muslims	-5934
▁anticip	-5935
▁divided	-5936
▁greatly	-5937
▁ongoing	-5938
▁remarks	-5939
▁shortly	-5940
▁species	-5941
▁adequate	-5942
▁aircraft	-5943
▁attempts	-5944
▁carrying	-5945
▁constitu	-5946
▁district	-5947
▁standing	-5948
▁surprise	-5949
▁urgently	-5950
▁delighted	-5951
▁increases	-5952
▁marketing	-5953
▁migration	-5954
▁paragraph	-5955
▁renewable	-5956
▁discussing	-5957
▁membership	-5958
▁reputation	-5959
▁substances	-5960
▁significantly	-5961
▁strengthening	-5962
-3	-5963
AL	-5964
As	-5965
CC	-5966
eg	-5967
aza	-5968
elf	-5969
ero	-5970
law	-5971
org	-5972
ova	-5973
▁$6	-5974
▁3,	-5975
▁Av	-5976
bert	-5977
cons	-5978
inct	-5979
oted	-5980
ques	-5981
tery	-5982
▁Ill	-5983
▁Wil	-5984
▁pil	-5985
,000.	-5986
anged	-5987
iated	-5988
olved	-5989
▁Balk	-5990
▁Open	-5991
▁Prof	-5992
▁Shah	-5993
▁kick	-5994
▁tear	-5995
▁till	-5996
▁unne	-5997
▁vice	-5998
active	-5999
alties	-6000
etroit	-6001
liance	-6002
▁Dutch	-6003
▁Paris	-6004
▁Peter	-6005
▁enemy	-6006
▁error	-6007
▁links	-6008
▁mortg	-6009
▁poore	-6010
▁reply	-6011
▁scale	-6012
▁split	-6013
enhagen	-6014
factory	-6015
igation	-6016
▁Church	-6017
▁defeat	-6018
▁female	-6019
▁inclus	-6020
▁marked	-6021
▁Barroso	-6022
▁alcohol	-6023
▁command	-6024
▁surgery	-6025
struction	-6026
▁Treasury	-6027
▁entitled	-6028
▁internet	-6029
▁offering	-6030
▁possibly	-6031
▁struggle	-6032
▁corporate	-6033
▁expensive	-6034
▁explained	-6035
▁temporary	-6036
▁worldwide	-6037
▁difficulty	-6038
▁electronic	-6039
▁historical	-6040
▁supplement	-6041
▁Netherlands	-6042
▁highlighted	-6043
▁consultation	-6044
▁Conservatives	-6045
EN	-6046
ux	-6047
duc	-6048
ket	-6049
vin	-6050
war	-6051
acco	-6052
free	-6053
iner	-6054
olit	-6055
pper	-6056
usal	-6057
what	-6058
▁Bas	-6059
▁CBS	-6060
▁Gal	-6061
▁Qur	-6062
▁WTO	-6063
▁arm	-6064
▁odd	-6065
▁ves	-6066
agged	-6067
break	-6068
itzer	-6069
▁Hill	-6070
▁SMEs	-6071
▁cool	-6072
▁draf	-6073
▁grew	-6074
▁pace	-6075
▁sick	-6076
▁tort	-6077
▁tree	-6078
▁wood	-6079
enture	-6080
▁Again	-6081
▁Chile	-6082
▁Maybe	-6083
▁dealt	-6084
▁fired	-6085
▁quiet	-6086
▁recip	-6087
▁toler	-6088
▁turns	-6089
▁Barack	-6090
▁Bulgar	-6091
▁extrem	-6092
▁honour	-6093
▁length	-6094
▁plenty	-6095
▁Editing	-6096
▁Reuters	-6097
▁equival	-6098
▁inspect	-6099
▁seconds	-6100
▁silence	-6101
▁teacher	-6102
▁approval	-6103
▁sensible	-6104
▁unnecess	-6105
▁Otherwise	-6106
▁contained	-6107
▁determine	-6108
▁emphasise	-6109
▁estimated	-6110
▁permanent	-6111
▁satisfied	-6112
▁encouraged	-6113
▁personally	-6114
▁regulatory	-6115
▁allegations	-6116
,'	-6117
RO	-6118
New	-6119
nic	-6120
yes	-6121
▁37	-6122
▁Ky	-6123
aped	-6124
kins	-6125
nown	-6126
pool	-6127
▁195	-6128
▁Met	-6129
▁Non	-6130
▁Pac	-6131
▁Que	-6132
▁Rad	-6133
▁bom	-6134
▁etc	-6135
▁sem	-6136
▁syn	-6137
agers	-6138
azine	-6139
ipped	-6140
oured	-6141
venth	-6142
▁Chel	-6143
▁Mary	-6144
▁hath	-6145
▁inev	-6146
▁insp	-6147
▁skin	-6148
▁sole	-6149
ansion	-6150
asions	-6151
oubted	-6152
▁Elect	-6153
▁Given	-6154
▁Paper	-6155
▁Steve	-6156
▁Wales	-6157
▁adapt	-6158
▁bread	-6159
▁devil	-6160
▁helps	-6161
▁roads	-6162
▁troub	-6163
▁worry	-6164
rations	-6165
▁Andrew	-6166
▁bigger	-6167
▁crimes	-6168
▁deploy	-6169
▁extend	-6170
▁namely	-6171
▁reconc	-6172
▁slowly	-6173
▁stores	-6174
▁comfort	-6175
▁convers	-6176
▁decline	-6177
▁deliber	-6178
▁threats	-6179
▁tragedy	-6180
▁warning	-6181
▁Bulgaria	-6182
▁category	-6183
▁earnings	-6184
▁flexible	-6185
▁ordinary	-6186
▁overcome	-6187
▁programs	-6188
▁valuable	-6189
▁extensive	-6190
▁occasions	-6191
▁preparing	-6192
▁Copenhagen	-6193
▁Manchester	-6194
▁definition	-6195
▁directives	-6196
▁facilities	-6197
▁proportion	-6198
▁reasonable	-6199
▁statistics	-6200
▁threatened	-6201
▁vulnerable	-6202
▁declaration	-6203
▁experienced	-6204
▁constructive	-6205
▁establishing	-6206
AM	-6207
PI	-6208
SP	-6209
ga	-6210
hus	-6211
ica	-6212
rol	-6213
▁$4	-6214
▁6.	-6215
agon	-6216
anta	-6217
burg	-6218
dule	-6219
hire	-6220
uous	-6221
utor	-6222
yers	-6223
▁Aud	-6224
▁Fox	-6225
▁GOP	-6226
▁Osc	-6227
▁bag	-6228
▁kne	-6229
▁mic	-6230
▁web	-6231
ables	-6232
antly	-6233
apped	-6234
celer	-6235
elson	-6236
enses	-6237
iform	-6238
izing	-6239
▁Camp	-6240
▁glad	-6241
▁hasn	-6242
▁iPad	-6243
▁iron	-6244
▁roll	-6245
▁toll	-6246
▁Croat	-6247
▁apart	-6248
▁firms	-6249
▁image	-6250
▁items	-6251
▁moral	-6252
▁nomin	-6253
▁rival	-6254
▁scrut	-6255
▁shots	-6256
▁sight	-6257
▁wider	-6258
ressive	-6259
vereign	-6260
▁Fisher	-6261
▁Korean	-6262
▁bought	-6263
▁deaths	-6264
▁earned	-6265
▁exists	-6266
▁illust	-6267
▁plants	-6268
▁retire	-6269
▁shadow	-6270
▁starts	-6271
▁suspic	-6272
▁Charles	-6273
▁Detroit	-6274
▁Eastern	-6275
▁causing	-6276
▁depends	-6277
▁deserve	-6278
▁exports	-6279
▁fortune	-6280
▁stories	-6281
▁strikes	-6282
▁Hospital	-6283
▁Partners	-6284
▁brothers	-6285
▁insisted	-6286
▁resolved	-6287
▁restruct	-6288
▁speakers	-6289
▁stations	-6290
▁weakness	-6291
▁behaviour	-6292
▁bilateral	-6293
▁concluded	-6294
▁incidents	-6295
▁prospects	-6296
▁remaining	-6297
▁sovereign	-6298
▁appearance	-6299
▁appreciate	-6300
▁collection	-6301
▁delegation	-6302
▁department	-6303
▁everywhere	-6304
▁mechanisms	-6305
▁protecting	-6306
▁revolution	-6307
▁tournament	-6308
▁advertising	-6309
▁complicated	-6310
▁surrounding	-6311
▁arrangements	-6312
▁restrictions	-6313
70	-6314
LA	-6315
-20	-6316
:00	-6317
aud	-6318
een	-6319
han	-6320
hol	-6321
met	-6322
rad	-6323
run	-6324
ubb	-6325
ula	-6326
▁Kn	-6327
▁PP	-6328
▁Sl	-6329
asks	-6330
ifer	-6331
ocal	-6332
olid	-6333
oral	-6334
pass	-6335
roll	-6336
turn	-6337
▁Blo	-6338
▁Dan	-6339
▁Dev	-6340
▁Nic	-6341
▁Six	-6342
▁nut	-6343
▁raw	-6344
enary	-6345
place	-6346
shire	-6347
ulous	-6348
▁2013	-6349
▁Food	-6350
▁Hope	-6351
▁amaz	-6352
▁bare	-6353
▁dign	-6354
▁hung	-6355
▁jour	-6356
▁loan	-6357
▁rank	-6358
▁sees	-6359
▁suit	-6360
atform	-6361
esters	-6362
everal	-6363
untary	-6364
▁Champ	-6365
▁Saudi	-6366
▁alive	-6367
▁route	-6368
▁seeks	-6369
▁shame	-6370
▁Action	-6371
▁Indust	-6372
▁approx	-6373
▁compos	-6374
▁desper	-6375
▁devast	-6376
▁excuse	-6377
▁leaves	-6378
▁manage	-6379
▁philos	-6380
▁winter	-6381
oubtedly	-6382
▁Georgia	-6383
▁Stephen	-6384
▁avoided	-6385
▁banking	-6386
▁citizen	-6387
▁contest	-6388
▁digital	-6389
▁herself	-6390
▁passion	-6391
▁relates	-6392
▁testing	-6393
▁uniform	-6394
▁variety	-6395
▁western	-6396
▁wounded	-6397
▁combined	-6398
▁disagree	-6399
▁judgment	-6400
▁northern	-6401
▁physical	-6402
▁arguments	-6403
▁coalition	-6404
▁conducted	-6405
▁elsewhere	-6406
▁labelling	-6407
▁obstacles	-6408
▁producing	-6409
▁proposing	-6410
▁requested	-6411
▁taxpayers	-6412
▁accordance	-6413
▁obligation	-6414
▁surprising	-6415
▁enforcement	-6416
▁disappointed	-6417
▁subsidiarity	-6418
▁globalisation	-6419
DS	-6420
aks	-6421
ias	-6422
nam	-6423
nce	-6424
pes	-6425
ram	-6426
ura	-6427
▁NE	-6428
▁NH	-6429
▁Ty	-6430
fast	-6431
rain	-6432
rene	-6433
▁Abu	-6434
▁Ell	-6435
▁Imp	-6436
▁Kim	-6437
▁Men	-6438
▁Tun	-6439
▁Van	-6440
▁anx	-6441
▁gay	-6442
Every	-6443
state	-6444
▁Bang	-6445
▁Cath	-6446
▁Home	-6447
▁Mike	-6448
▁Thus	-6449
▁Zimb	-6450
▁amid	-6451
▁core	-6452
▁file	-6453
▁fill	-6454
▁oral	-6455
▁reli	-6456
▁tool	-6457
▁vacc	-6458
lywood	-6459
tering	-6460
▁Colle	-6461
▁Frank	-6462
▁Leban	-6463
▁Super	-6464
▁doors	-6465
▁moves	-6466
areness	-6467
▁Little	-6468
▁Thomas	-6469
▁basket	-6470
▁eating	-6471
▁hardly	-6472
▁implic	-6473
▁incred	-6474
▁intens	-6475
▁narrow	-6476
▁pieces	-6477
▁prohib	-6478
▁spoken	-6479
▁talked	-6480
▁Current	-6481
▁acceler	-6482
▁affects	-6483
▁amounts	-6484
▁compete	-6485
▁imagine	-6486
▁payment	-6487
▁penalty	-6488
▁tension	-6489
▁welfare	-6490
▁worried	-6491
▁Scottish	-6492
▁airports	-6493
▁analysts	-6494
▁disposal	-6495
▁medicine	-6496
▁protests	-6497
▁somewhat	-6498
unications	-6499
▁Hungarian	-6500
▁convicted	-6501
▁estimates	-6502
▁passenger	-6503
▁perfectly	-6504
▁pollution	-6505
▁primarily	-6506
▁associated	-6507
▁complaints	-6508
▁eventually	-6509
▁foundation	-6510
▁guaranteed	-6511
▁improvements	-6512
▁organization	-6513
:5	-6514
IC	-6515
NL	-6516
PS	-6517
tr	-6518
ano	-6519
deb	-6520
how	-6521
▁au	-6522
abwe	-6523
amin	-6524
life	-6525
real	-6526
teen	-6527
whel	-6528
▁Bob	-6529
▁Hon	-6530
▁Hus	-6531
▁Jim	-6532
▁Low	-6533
▁Pan	-6534
▁Rec	-6535
▁fol	-6536
▁hal	-6537
aylor	-6538
erved	-6539
inder	-6540
rison	-6541
uties	-6542
▁Beck	-6543
▁Fair	-6544
▁Ford	-6545
▁Grow	-6546
▁Hall	-6547
▁Jeff	-6548
▁Mosc	-6549
▁Pact	-6550
▁Serb	-6551
▁Star	-6552
▁boys	-6553
▁calc	-6554
▁cult	-6555
▁quar	-6556
ellect	-6557
ivered	-6558
ortion	-6559
ticles	-6560
▁2006.	-6561
▁climb	-6562
▁color	-6563
▁decre	-6564
▁gains	-6565
▁grown	-6566
▁noise	-6567
▁notes	-6568
▁pharm	-6569
uilding	-6570
▁Polish	-6571
▁acting	-6572
▁buying	-6573
▁famous	-6574
▁island	-6575
▁preced	-6576
▁devices	-6577
▁studies	-6578
itzerland	-6579
▁Japanese	-6580
▁airlines	-6581
▁champion	-6582
▁civilian	-6583
▁deserves	-6584
▁features	-6585
▁mobility	-6586
▁recorded	-6587
▁cooperate	-6588
▁secretary	-6589
▁subsidies	-6590
▁settlement	-6591
▁struggling	-6592
▁negotiating	-6593
▁politically	-6594
▁potentially	-6595
▁Consequently	-6596
▁demonstrated	-6597
▁approximately	-6598
▁controversial	-6599
/0	-6600
ET	-6601
PT	-6602
So	-6603
gl	-6604
sm	-6605
urt	-6606
▁34	-6607
▁7.	-6608
▁AC	-6609
▁Ak	-6610
▁ru	-6611
dden	-6612
esty	-6613
iest	-6614
ingu	-6615
ldom	-6616
ords	-6617
rich	-6618
rier	-6619
▁10.	-6620
▁Dec	-6621
▁Haw	-6622
▁Int	-6623
▁Jon	-6624
▁Kat	-6625
▁Lou	-6626
▁SOU	-6627
▁Wel	-6628
▁err	-6629
▁sch	-6630
▁tob	-6631
hered	-6632
known	-6633
▁Lith	-6634
▁Pass	-6635
▁cart	-6636
▁coff	-6637
▁zone	-6638
ipping	-6639
▁2007.	-6640
▁Could	-6641
▁Found	-6642
▁Mount	-6643
▁Royal	-6644
▁Somal	-6645
▁feels	-6646
▁giant	-6647
▁overs	-6648
▁shock	-6649
▁yield	-6650
▁Argent	-6651
▁Lastly	-6652
▁Should	-6653
▁agents	-6654
▁chosen	-6655
▁detect	-6656
▁device	-6657
▁escape	-6658
▁reserv	-6659
▁Several	-6660
▁ordered	-6661
▁records	-6662
▁Assembly	-6663
▁District	-6664
▁Zimbabwe	-6665
▁attacked	-6666
▁barriers	-6667
▁overwhel	-6668
▁promises	-6669
▁thorough	-6670
▁Institute	-6671
▁Officials	-6672
▁Represent	-6673
▁Sometimes	-6674
▁delivered	-6675
▁destroyed	-6676
▁penalties	-6677
▁responded	-6678
▁substance	-6679
▁territory	-6680
▁extraordin	-6681
▁prosperity	-6682
▁Switzerland	-6683
▁effectiveness	-6684
▁liberalisation	-6685
75	-6686
FP	-6687
Is	-6688
Pe	-6689
bar	-6690
era	-6691
itt	-6692
oto	-6693
raw	-6694
▁AI	-6695
▁NF	-6696
▁Ut	-6697
ooth	-6698
outs	-6699
seas	-6700
▁Lie	-6701
▁Meh	-6702
▁Spr	-6703
▁Sud	-6704
▁Tai	-6705
▁ant	-6706
▁mad	-6707
arked	-6708
gence	-6709
ingly	-6710
orage	-6711
water	-6712
wered	-6713
▁Each	-6714
▁Hard	-6715
▁Hold	-6716
▁Next	-6717
▁abol	-6718
▁asks	-6719
▁calm	-6720
▁chap	-6721
▁crop	-6722
▁hits	-6723
▁magn	-6724
▁pill	-6725
▁prop	-6726
▁tail	-6727
▁uses	-6728
arrass	-6729
icated	-6730
udsman	-6731
▁Death	-6732
▁Rules	-6733
▁films	-6734
▁fixed	-6735
▁guide	-6736
▁phase	-6737
▁ruled	-6738
▁stars	-6739
▁upset	-6740
▁Others	-6741
▁Policy	-6742
▁banned	-6743
▁beings	-6744
▁carbon	-6745
▁decent	-6746
▁depart	-6747
▁surely	-6748
▁winner	-6749
▁Iranian	-6750
▁install	-6751
▁letters	-6752
▁strange	-6753
▁suicide	-6754
▁survive	-6755
▁violent	-6756
▁attorney	-6757
▁collapse	-6758
▁judicial	-6759
▁numerous	-6760
▁schedule	-6761
▁stressed	-6762
▁thousand	-6763
▁awareness	-6764
▁expansion	-6765
▁referring	-6766
▁discovered	-6767
▁legitimate	-6768
▁violations	-6769
▁demonstrate	-6770
▁represented	-6771
▁suggestions	-6772
▁supervision	-6773
▁applications	-6774
▁manufacturers	-6775
▁interpretation	-6776
-6	-6777
12	-6778
25	-6779
96	-6780
▁,	-6781
akh	-6782
hav	-6783
▁9.	-6784
▁Bu	-6785
▁Gi	-6786
▁Ra	-6787
aine	-6788
ibly	-6789
imal	-6790
izes	-6791
otal	-6792
vals	-6793
ycle	-6794
▁10-	-6795
▁11,	-6796
▁300	-6797
▁Bol	-6798
▁Dow	-6799
▁Dun	-6800
▁Haz	-6801
▁Mag	-6802
▁Off	-6803
▁Ram	-6804
▁mal	-6805
▁wis	-6806
burgh	-6807
ellow	-6808
erest	-6809
onent	-6810
organ	-6811
poses	-6812
table	-6813
venue	-6814
▁Cast	-6815
▁Jose	-6816
▁Mont	-6817
▁Sand	-6818
▁Wind	-6819
▁dece	-6820
▁keen	-6821
▁pays	-6822
▁visa	-6823
▁wake	-6824
celona	-6825
debate	-6826
▁Burma	-6827
▁Force	-6828
▁Staff	-6829
▁Table	-6830
▁admit	-6831
▁argue	-6832
▁novel	-6833
▁panel	-6834
▁reass	-6835
▁river	-6836
▁ships	-6837
▁stuff	-6838
▁Greens	-6839
▁Moscow	-6840
▁Prosec	-6841
▁delays	-6842
▁finger	-6843
▁garden	-6844
▁margin	-6845
▁serves	-6846
▁sister	-6847
▁submit	-6848
▁unique	-6849
▁widely	-6850
mbudsman	-6851
▁Austria	-6852
▁Chamber	-6853
▁Lithuan	-6854
▁Supreme	-6855
▁choices	-6856
▁clothes	-6857
▁focused	-6858
▁grounds	-6859
▁maximum	-6860
▁plenary	-6861
▁section	-6862
▁tobacco	-6863
▁visited	-6864
▁Independ	-6865
▁delivery	-6866
▁occurred	-6867
▁condemned	-6868
▁dependent	-6869
▁disasters	-6870
▁excessive	-6871
▁extension	-6872
▁forgotten	-6873
▁intellect	-6874
▁medicines	-6875
▁sentenced	-6876
▁wonderful	-6877
▁Everything	-6878
▁equivalent	-6879
▁immigrants	-6880
▁innovative	-6881
▁association	-6882
▁undoubtedly	-6883
?”	-6884
EL	-6885
PM	-6886
RCE	-6887
adi	-6888
los	-6889
rig	-6890
ros	-6891
▁6-	-6892
▁8,	-6893
▁Ap	-6894
▁Hy	-6895
▁TH	-6896
ibet	-6897
long	-6898
prof	-6899
▁Gen	-6900
▁Hen	-6901
▁Rem	-6902
▁cas	-6903
▁fan	-6904
▁guy	-6905
▁ham	-6906
▁mir	-6907
▁thr	-6908
▁vig	-6909
ether	-6910
idesp	-6911
ishop	-6912
itime	-6913
oples	-6914
uster	-6915
▁Bern	-6916
▁Corp	-6917
▁Down	-6918
▁Educ	-6919
▁None	-6920
▁Pers	-6921
▁Prem	-6922
▁Reid	-6923
▁Rock	-6924
▁Tory	-6925
▁Very	-6926
▁acad	-6927
▁boss	-6928
▁fees	-6929
▁heat	-6930
▁hero	-6931
▁pipe	-6932
▁tied	-6933
People	-6934
inking	-6935
pected	-6936
▁Color	-6937
▁Dubai	-6938
▁Natur	-6939
▁Sarah	-6940
▁Would	-6941
▁armed	-6942
▁chain	-6943
▁chose	-6944
▁frust	-6945
▁labor	-6946
▁motiv	-6947
▁print	-6948
▁shout	-6949
▁stood	-6950
▁usual	-6951
urities	-6952
▁Michel	-6953
▁SOURCE	-6954
▁abroad	-6955
▁adults	-6956
▁associ	-6957
▁attrib	-6958
▁ethnic	-6959
▁latter	-6960
▁listed	-6961
▁models	-6962
▁poetry	-6963
▁quotas	-6964
▁sudden	-6965
▁unions	-6966
▁approve	-6967
▁caution	-6968
▁clarify	-6969
▁counsel	-6970
▁emerged	-6971
▁legitim	-6972
▁offices	-6973
▁passing	-6974
▁persons	-6975
▁radical	-6976
▁storage	-6977
abilities	-6978
fortunate	-6979
idespread	-6980
▁bankrupt	-6981
▁familiar	-6982
▁historic	-6983
▁incorpor	-6984
▁innocent	-6985
▁proposes	-6986
▁purposes	-6987
▁Barcelona	-6988
▁Obviously	-6989
▁collapsed	-6990
▁conflicts	-6991
▁embarrass	-6992
▁entertain	-6993
▁indicated	-6994
▁languages	-6995
▁collective	-6996
▁intentions	-6997
▁neighbours	-6998
▁punishment	-6999
▁university	-7000
▁Information	-7001
▁reconstruction	-7002
AA	-7003
ON	-7004
TA	-7005
fl	-7006
hy	-7007
ni	-7008
pm	-7009
va	-7010
’.	-7011
can	-7012
kin	-7013
spe	-7014
vak	-7015
win	-7016
▁32	-7017
▁38	-7018
▁cy	-7019
▁gh	-7020
osis	-7021
ship	-7022
tees	-7023
west	-7024
▁Bab	-7025
▁Gar	-7026
▁bon	-7027
▁cup	-7028
▁haz	-7029
▁hyp	-7030
▁kil	-7031
▁pal	-7032
▁pir	-7033
▁tea	-7034
▁tie	-7035
month	-7036
ouver	-7037
▁1990	-7038
▁1997	-7039
▁2001	-7040
▁2004	-7041
▁Ariz	-7042
▁Best	-7043
▁Lead	-7044
▁Nice	-7045
▁Plan	-7046
▁band	-7047
▁fant	-7048
▁gift	-7049
▁golf	-7050
▁salt	-7051
▁tact	-7052
▁teen	-7053
ingers	-7054
▁1,000	-7055
▁2007,	-7056
▁Agric	-7057
▁Exper	-7058
▁Power	-7059
▁Tibet	-7060
▁grave	-7061
▁ideal	-7062
▁keeps	-7063
▁lands	-7064
▁prize	-7065
▁sixth	-7066
▁valid	-7067
estival	-7068
oration	-7069
reprene	-7070
▁anyway	-7071
▁comply	-7072
▁enthus	-7073
▁firmly	-7074
▁images	-7075
▁impose	-7076
▁papers	-7077
▁seldom	-7078
▁Chelsea	-7079
▁Indones	-7080
▁Liberal	-7081
▁Through	-7082
▁backing	-7083
▁chances	-7084
▁drawing	-7085
▁engaged	-7086
▁journey	-7087
▁peoples	-7088
▁realise	-7089
▁sending	-7090
▁attended	-7091
▁location	-7092
▁magazine	-7093
▁monetary	-7094
▁recalled	-7095
▁subjects	-7096
▁supplies	-7097
▁thoughts	-7098
ifications	-7099
▁Following	-7100
▁opponents	-7101
▁regularly	-7102
▁safeguard	-7103
▁diplomatic	-7104
▁highlights	-7105
▁maintained	-7106
▁negotiated	-7107
▁functioning	-7108
▁requirement	-7109
▁unfortunate	-7110
▁Organisation	-7111
-5	-7112
FI	-7113
HO	-7114
OS	-7115
US	-7116
ds	-7117
▁€	-7118
5-0	-7119
Our	-7120
ahu	-7121
asp	-7122
aug	-7123
erb	-7124
ikh	-7125
ixt	-7126
van	-7127
▁id	-7128
sell	-7129
▁400	-7130
▁Cam	-7131
▁Equ	-7132
▁Fav	-7133
▁Has	-7134
▁Ice	-7135
▁Lew	-7136
▁Mot	-7137
▁NBC	-7138
▁NEW	-7139
▁Sov	-7140
▁Whe	-7141
▁dry	-7142
▁ing	-7143
▁mix	-7144
▁ped	-7145
▁rac	-7146
▁unw	-7147
ifies	-7148
ograp	-7149
scale	-7150
utral	-7151
▁2012	-7152
▁Conf	-7153
▁Cuba	-7154
▁Fire	-7155
▁Jean	-7156
▁Ohio	-7157
▁Tags	-7158
▁Vanc	-7159
▁adds	-7160
▁copy	-7161
▁heav	-7162
▁hell	-7163
▁hole	-7164
▁joke	-7165
▁lend	-7166
▁moon	-7167
▁rent	-7168
▁ring	-7169
▁trem	-7170
▁unus	-7171
▁wave	-7172
▁west	-7173
▁wild	-7174
ighter	-7175
rators	-7176
▁Above	-7177
▁Major	-7178
▁aside	-7179
▁conce	-7180
▁divor	-7181
▁holds	-7182
▁loved	-7183
▁micro	-7184
▁mixed	-7185
▁moder	-7186
▁owner	-7187
▁persu	-7188
▁remov	-7189
▁style	-7190
▁tasks	-7191
▁veter	-7192
actions	-7193
▁Ashton	-7194
▁Cooper	-7195
▁Taiwan	-7196
▁argued	-7197
▁bitter	-7198
▁courts	-7199
▁nearby	-7200
▁remove	-7201
▁writer	-7202
ographic	-7203
▁Special	-7204
▁dignity	-7205
▁ignored	-7206
▁poorest	-7207
▁rapidly	-7208
▁restaur	-7209
▁schemes	-7210
▁unclear	-7211
▁urgency	-7212
▁watched	-7213
▁Administ	-7214
▁Catholic	-7215
▁Director	-7216
▁adopting	-7217
▁consolid	-7218
▁contrast	-7219
▁facility	-7220
▁friendly	-7221
▁interven	-7222
▁messages	-7223
▁neighbor	-7224
▁replaced	-7225
▁worrying	-7226
▁Hollywood	-7227
▁Vancouver	-7228
▁diversity	-7229
▁existence	-7230
▁expecting	-7231
▁voluntary	-7232
▁Australian	-7233
▁constantly	-7234
▁entreprene	-7235
▁impression	-7236
▁optimistic	-7237
▁registered	-7238
▁Authorities	-7239
35	-7240
:4	-7241
ED	-7242
ho	-7243
ta	-7244
All	-7245
asy	-7246
bel	-7247
bum	-7248
irk	-7249
och	-7250
osh	-7251
uls	-7252
▁Er	-7253
▁Id	-7254
▁MP	-7255
▁Us	-7256
foot	-7257
irds	-7258
king	-7259
lets	-7260
wing	-7261
ynam	-7262
▁Def	-7263
▁Det	-7264
▁Fif	-7265
▁Jay	-7266
▁Mem	-7267
▁NFL	-7268
▁Pos	-7269
▁Ros	-7270
▁Run	-7271
▁Tax	-7272
▁Wat	-7273
▁cry	-7274
▁pig	-7275
eless	-7276
▁Card	-7277
▁Care	-7278
▁Coll	-7279
▁Eric	-7280
▁Live	-7281
▁Matt	-7282
▁Road	-7283
▁Test	-7284
▁cens	-7285
▁diet	-7286
▁feat	-7287
▁gall	-7288
▁scan	-7289
▁tast	-7290
▁wolf	-7291
esides	-7292
iamond	-7293
ricket	-7294
▁Ahmad	-7295
▁Blair	-7296
▁Grand	-7297
▁Moham	-7298
▁Palin	-7299
▁Peace	-7300
▁Stock	-7301
▁diagn	-7302
▁liked	-7303
▁loves	-7304
▁marks	-7305
▁minds	-7306
▁pregn	-7307
▁resum	-7308
▁sugar	-7309
▁teeth	-7310
▁trick	-7311
looking	-7312
ogether	-7313
unately	-7314
▁Bureau	-7315
▁Consum	-7316
▁Employ	-7317
▁Miller	-7318
▁Morgan	-7319
▁Recent	-7320
▁Slovak	-7321
▁Taylor	-7322
▁backed	-7323
▁belief	-7324
▁duties	-7325
▁fulfil	-7326
▁hidden	-7327
▁judges	-7328
▁movies	-7329
▁patent	-7330
▁perpet	-7331
▁picked	-7332
▁speaks	-7333
▁twenty	-7334
▁volume	-7335
iscrimin	-7336
iversary	-7337
▁Balkans	-7338
▁Croatia	-7339
▁Society	-7340
▁absence	-7341
▁assault	-7342
▁binding	-7343
▁closing	-7344
▁examine	-7345
▁expense	-7346
▁failing	-7347
▁farming	-7348
▁firstly	-7349
▁infring	-7350
▁intends	-7351
▁lawyers	-7352
▁organiz	-7353
▁raising	-7354
▁restore	-7355
▁returns	-7356
▁speaker	-7357
▁Children	-7358
▁ambition	-7359
▁favorite	-7360
▁indicate	-7361
▁multiple	-7362
▁openness	-7363
▁peaceful	-7364
▁platform	-7365
▁producer	-7366
▁rebounds	-7367
▁revealed	-7368
▁scrutiny	-7369
▁taxation	-7370
▁Authority	-7371
▁Ombudsman	-7372
▁correctly	-7373
▁inclusion	-7374
▁telephone	-7375
▁Foundation	-7376
▁convention	-7377
▁facilitate	-7378
▁recognised	-7379
▁structures	-7380
▁widespread	-7381
▁preparation	-7382
▁unnecessary	-7383
▁conservative	-7384
amm	-7385
awn	-7386
but	-7387
fol	-7388
ios	-7389
iot	-7390
lee	-7391
omy	-7392
▁$5	-7393
▁48	-7394
▁Cr	-7395
▁Fe	-7396
aeda	-7397
eded	-7398
load	-7399
mann	-7400
owed	-7401
▁10,	-7402
▁20%	-7403
▁Bru	-7404
▁Dal	-7405
▁Ext	-7406
▁Job	-7407
▁PPE	-7408
▁jun	-7409
▁jur	-7410
▁ric	-7411
▁rum	-7412
adequ	-7413
ennis	-7414
iable	-7415
oster	-7416
raint	-7417
stein	-7418
ubble	-7419
urate	-7420
useum	-7421
▁Bagh	-7422
▁Nick	-7423
▁Syed	-7424
▁Tony	-7425
▁Tour	-7426
▁Viet	-7427
▁aged	-7428
▁cure	-7429
▁ears	-7430
▁gang	-7431
▁hide	-7432
▁trig	-7433
▁unve	-7434
▁wear	-7435
Americ	-7436
rorism	-7437
▁Abdul	-7438
▁Legal	-7439
▁Simon	-7440
▁Small	-7441
▁Sudan	-7442
▁acted	-7443
▁actor	-7444
▁badly	-7445
▁crack	-7446
▁flour	-7447
▁hoped	-7448
▁recru	-7449
▁schol	-7450
▁spons	-7451
▁surge	-7452
▁teach	-7453
▁types	-7454
▁Series	-7455
▁Within	-7456
▁editor	-7457
▁fields	-7458
▁filled	-7459
▁flying	-7460
▁funded	-7461
▁headed	-7462
▁hoping	-7463
▁mental	-7464
▁partly	-7465
▁passes	-7466
▁physic	-7467
▁pounds	-7468
▁praise	-7469
gression	-7470
gressive	-7471
ospitals	-7472
▁Arizona	-7473
▁Belgium	-7474
▁College	-7475
▁Earlier	-7476
▁broader	-7477
▁carries	-7478
▁cutting	-7479
▁damaged	-7480
▁distort	-7481
▁editing	-7482
▁heading	-7483
▁inadequ	-7484
▁tonight	-7485
▁walking	-7486
▁decisive	-7487
▁emphasis	-7488
▁misunder	-7489
▁obtained	-7490
▁overseas	-7491
▁unlikely	-7492
▁Stability	-7493
▁accidents	-7494
▁allocated	-7495
▁dominated	-7496
▁exclusion	-7497
▁initially	-7498
▁professor	-7499
▁receiving	-7500
▁minorities	-7501
▁originally	-7502
▁percentage	-7503
▁credibility	-7504
▁operational	-7505
▁Conservative	-7506
▁considerably	-7507
▁successfully	-7508
▁harmonisation	-7509
-8	-7510
/2	-7511
13	-7512
90	-7513
IA	-7514
vo	-7515
▁u	-7516
For	-7517
car	-7518
eop	-7519
iki	-7520
ima	-7521
ita	-7522
oil	-7523
pel	-7524
▁8.	-7525
arer	-7526
arks	-7527
athy	-7528
cean	-7529
isco	-7530
look	-7531
mosp	-7532
ompl	-7533
onym	-7534
rage	-7535
zone	-7536
▁11.	-7537
▁Art	-7538
▁Bad	-7539
▁Bat	-7540
▁Hay	-7541
▁Ins	-7542
▁Jul	-7543
▁Ken	-7544
▁Mel	-7545
▁Mid	-7546
▁Pel	-7547
▁Sky	-7548
▁ble	-7549
▁fee	-7550
▁fix	-7551
▁gar	-7552
▁nav	-7553
These	-7554
adian	-7555
igned	-7556
obile	-7557
ropri	-7558
▁1999	-7559
▁2003	-7560
▁Foot	-7561
▁Gulf	-7562
▁Hist	-7563
▁Kent	-7564
▁Oper	-7565
▁Pent	-7566
▁Prop	-7567
▁Rome	-7568
▁Ryan	-7569
▁Stan	-7570
▁ease	-7571
▁entr	-7572
▁male	-7573
▁publ	-7574
▁stem	-7575
▁tang	-7576
▁wars	-7577
ective	-7578
hengen	-7579
ieties	-7580
ounger	-7581
stream	-7582
▁Brian	-7583
▁Chair	-7584
▁Forum	-7585
▁Games	-7586
▁Right	-7587
▁Swiss	-7588
▁Tunis	-7589
▁Watch	-7590
▁anger	-7591
▁dress	-7592
▁dynam	-7593
▁elder	-7594
▁exhib	-7595
▁honey	-7596
▁imper	-7597
▁loose	-7598
▁paral	-7599
▁rally	-7600
▁shift	-7601
▁stret	-7602
▁tired	-7603
haville	-7604
▁Baltic	-7605
▁Common	-7606
▁Friend	-7607
▁Govern	-7608
▁Growth	-7609
▁Serbia	-7610
▁Struct	-7611
▁bright	-7612
▁clause	-7613
▁dinner	-7614
▁dreams	-7615
▁exceed	-7616
▁harder	-7617
▁ignore	-7618
▁oppose	-7619
▁purely	-7620
▁rating	-7621
▁saving	-7622
▁stabil	-7623
▁switch	-7624
▁Iceland	-7625
▁creates	-7626
▁illness	-7627
▁imports	-7628
▁imposed	-7629
▁invited	-7630
▁publish	-7631
▁visible	-7632
▁Schengen	-7633
▁articles	-7634
▁collabor	-7635
▁describe	-7636
▁expenses	-7637
▁freedoms	-7638
▁handling	-7639
▁opinions	-7640
▁pensions	-7641
▁preserve	-7642
▁reflects	-7643
▁requests	-7644
▁Education	-7645
▁Lithuania	-7646
▁alongside	-7647
▁defending	-7648
▁explosion	-7649
▁fishermen	-7650
▁negotiate	-7651
▁observers	-7652
▁offensive	-7653
▁operators	-7654
▁philosoph	-7655
▁promotion	-7656
▁selection	-7657
▁virtually	-7658
▁committees	-7659
▁compliance	-7660
▁contradict	-7661
▁economists	-7662
▁friendship	-7663
▁legitimacy	-7664
▁protesters	-7665
▁repeatedly	-7666
▁restricted	-7667
▁strategies	-7668
▁supporters	-7669
▁achievement	-7670
▁anniversary	-7671
▁forthcoming	-7672
▁extraordinary	-7673
14	-7674
BA	-7675
GA	-7676
NA	-7677
TV	-7678
ae	-7679
iy	-7680
▁­	-7681
Don	-7682
GOs	-7683
ema	-7684
mat	-7685
rie	-7686
▁($	-7687
▁5,	-7688
achi	-7689
adel	-7690
aint	-7691
aire	-7692
appy	-7693
atar	-7694
ctic	-7695
haul	-7696
hone	-7697
iece	-7698
lers	-7699
offs	-7700
razy	-7701
rive	-7702
sein	-7703
ulus	-7704
▁Alm	-7705
▁Bay	-7706
▁Dou	-7707
▁Gib	-7708
▁Nas	-7709
▁Rev	-7710
▁Rub	-7711
▁Tor	-7712
▁anc	-7713
▁awa	-7714
▁era	-7715
▁mel	-7716
▁phr	-7717
▁pup	-7718
▁thy	-7719
▁tun	-7720
aceut	-7721
allas	-7722
anche	-7723
anges	-7724
arest	-7725
itian	-7726
licit	-7727
stone	-7728
▁Back	-7729
▁Book	-7730
▁Bosn	-7731
▁Bowl	-7732
▁Call	-7733
▁Drug	-7734
▁Land	-7735
▁Stri	-7736
▁Utah	-7737
▁	-7738
e	-7739
t	-7740
a	-7741
o	-7742
i	-7743
n	-7744
s	-7745
r	-7746
h	-7747
l	-7748
d	-7749
c	-7750
u	-7751
m	-7752
p	-7753
f	-7754
g	-7755
y	-7756
w	-7757
.	-7758
b	-7759
v	-7760
,	-7761
k	-7762
T	-7763
I	-7764
A	-7765
S	-7766
C	-7767
M	-7768
'	-7769
-	-7770
0	-7771
P	-7772
"	-7773
E	-7774
W	-7775
x	-7776
B	-7777
1	-7778
H	-7779
2	-7780
j	-7781
N	-7782
F	-7783
U	-7784
D	-7785
R	-7786
O	-7787
L	-7788
q	-7789
G	-7790
z	-7791
:	-7792
9	-7793
5	-7794
3	-7795
J	-7796
?	-7797
’	-7798
(	-7799
)	-7800
K	-7801
4	-7802
6	-7803
8	-7804
7	-7805
Y	-7806
V	-7807
“	-7808
”	-7809
/	-7810
$	-7811
;	-7812
!	-7813
%	-7814
Q	-7815
Z	-7816
—	-7817
–	-7818
£	-7819
`	-7820
â	-7821
&	-7822
€	-7823
‘	-7824
[	-7825
X	-7826
]	-7827
̧	-7828
‚	-7829
à	-7830
Â	-7831
+	-7832
ŕ	-7833
é	-7834
Ă	-7835
¬	-7836
_	-7837
@	-7838
ا	-7839
­	-7840
Ã	-7841
á	-7842
̃	-7843
⁄	-7844
ï	-7845
ل	-7846
ر	-7847
ی	-7848
»	-7849
¿	-7850
ö	-7851
„	-7852
Ł	-7853
í	-7854
Ą	-7855
*	-7856
®	-7857
#	-7858
¢	-7859
©	-7860
م	-7861
ü	-7862
د	-7863
ش	-7864
ن	-7865
و	-7866
ó	-7867
ô	-7868
ś	-7869
ٔ	-7870
œ	-7871
ب	-7872
	-7873
Œ	-7874
س	-7875
	-7876
¤	-7877
Ø	-7878
Ù	-7879
è	-7880
Ľ	-7881
=	-7882
ä	-7883
Ĺ	-7884
Š	-7885
ź	-7886
َ	-7887
ک	-7888
	-7889
Î	-7890
ñ	-7891
¡	-7892
Ä	-7893
ł	-7894
ف	-7895
ہ	-7896
•	-7897
	-7898
	-7899
§	-7900
«	-7901
̈	-7902
ھ	-7903
●	-7904
\	-7905
	-7906
	-7907
	-7908
	-7909
ç	-7910
š	-7911
ت	-7912
ج	-7913
ع	-7914
ے	-7915
|	-7916
	-7917
	-7918
¥	-7919
Á	-7920
ë	-7921
ú	-7922
ń	-7923
ح	-7924
ض	-7925
ط	-7926
ِ	-7927
ْ	-7928
پ	-7929
۔	-7930
†	-7931
	-7932
	-7933
	-7934
	-7935
	-7936
	-7937
°	-7938
¶	-7939
Å	-7940
Ö	-7941
Û	-7942
ê	-7943
ø	-7944
û	-7945
Ş	-7946
Ź	-7947
Ž	-7948
ˆ	-7949
ˈ	-7950
́	-7951
̆	-7952
أ	-7953
ئ	-7954
ُ	-7955
‹	-7956
<	-7957
	-7958
	-7959
	-7960
	-7961
¦	-7962
±	-7963
·	-7964
É	-7965
Ë	-7966
×	-7967
Ü	-7968
ã	-7969
ā	-7970
ć	-7971
ē	-7972
ę	-7973
ğ	-7974
Ś	-7975
ŵ	-7976
Ÿ	-7977
ž	-7978
ə	-7979
ˌ	-7980
،	-7981
خ	-7982
ص	-7983
غ	-7984
ق	-7985
ه	-7986
ٰ	-7987
چ	-7988
ڈ	-7989
ڑ	-7990
ں	-7991
‡	-7992
‰	-7993
›	-7994
→	-7995
